<pad>	0
<unk>	0
<s>	0
</s>	0
<2en>	0
<2es>	0
<0x00>	0
<0x01>	0
<0x02>	0
<0x03>	0
<0x04>	0
<0x05>	0
<0x06>	0
<0x07>	0
<0x08>	0
<0x09>	0
<0x0A>	0
<0x0B>	0
<0x0C>	0
<0x0D>	0
<0x0E>	0
<0x0F>	0
<0x10>	0
<0x11>	0
<0x12>	0
<0x13>	0
<0x14>	0
<0x15>	0
<0x16>	0
<0x17>	0
<0x18>	0
<0x19>	0
<0x1A>	0
<0x1B>	0
<0x1C>	0
<0x1D>	0
<0x1E>	0
<0x1F>	0
<0x20>	0
<0x21>	0
<0x22>	0
<0x23>	0
<0x24>	0
<0x25>	0
<0x26>	0
<0x27>	0
<0x28>	0
<0x29>	0
<0x2A>	0
<0x2B>	0
<0x2C>	0
<0x2D>	0
<0x2E>	0
<0x2F>	0
<0x30>	0
<0x31>	0
<0x32>	0
<0x33>	0
<0x34>	0
<0x35>	0
<0x36>	0
<0x37>	0
<0x38>	0
<0x39>	0
<0x3A>	0
<0x3B>	0
<0x3C>	0
<0x3D>	0
<0x3E>	0
<0x3F>	0
<0x40>	0
<0x41>	0
<0x42>	0
<0x43>	0
<0x44>	0
<0x45>	0
<0x46>	0
<0x47>	0
<0x48>	0
<0x49>	0
<0x4A>	0
<0x4B>	0
<0x4C>	0
<0x4D>	0
<0x4E>	0
<0x4F>	0
<0x50>	0
<0x51>	0
<0x52>	0
<0x53>	0
<0x54>	0
<0x55>	0
<0x56>	0
<0x57>	0
<0x58>	0
<0x59>	0
<0x5A>	0
<0x5B>	0
<0x5C>	0
<0x5D>	0
<0x5E>	0
<0x5F>	0
<0x60>	0
<0x61>	0
<0x62>	0
<0x63>	0
<0x64>	0
<0x65>	0
<0x66>	0
<0x67>	0
<0x68>	0
<0x69>	0
<0x6A>	0
<0x6B>	0
<0x6C>	0
<0x6D>	0
<0x6E>	0
<0x6F>	0
<0x70>	0
<0x71>	0
<0x72>	0
<0x73>	0
<0x74>	0
<0x75>	0
<0x76>	0
<0x77>	0
<0x78>	0
<0x79>	0
<0x7A>	0
<0x7B>	0
<0x7C>	0
<0x7D>	0
<0x7E>	0
<0x7F>	0
<0x80>	0
<0x81>	0
<0x82>	0
<0x83>	0
<0x84>	0
<0x85>	0
<0x86>	0
<0x87>	0
<0x88>	0
<0x89>	0
<0x8A>	0
<0x8B>	0
<0x8C>	0
<0x8D>	0
<0x8E>	0
<0x8F>	0
<0x90>	0
<0x91>	0
<0x92>	0
<0x93>	0
<0x94>	0
<0x95>	0
<0x96>	0
<0x97>	0
<0x98>	0
<0x99>	0
<0x9A>	0
<0x9B>	0
<0x9C>	0
<0x9D>	0
<0x9E>	0
<0x9F>	0
<0xA0>	0
<0xA1>	0
<0xA2>	0
<0xA3>	0
<0xA4>	0
<0xA5>	0
<0xA6>	0
<0xA7>	0
<0xA8>	0
<0xA9>	0
<0xAA>	0
<0xAB>	0
<0xAC>	0
<0xAD>	0
<0xAE>	0
<0xAF>	0
<0xB0>	0
<0xB1>	0
<0xB2>	0
<0xB3>	0
<0xB4>	0
<0xB5>	0
<0xB6>	0
<0xB7>	0
<0xB8>	0
<0xB9>	0
<0xBA>	0
<0xBB>	0
<0xBC>	0
<0xBD>	0
<0xBE>	0
<0xBF>	0
<0xC0>	0
<0xC1>	0
<0xC2>	0
<0xC3>	0
<0xC4>	0
<0xC5>	0
<0xC6>	0
<0xC7>	0
<0xC8>	0
<0xC9>	0
<0xCA>	0
<0xCB>	0
<0xCC>	0
<0xCD>	0
<0xCE>	0
<0xCF>	0
<0xD0>	0
<0xD1>	0
<0xD2>	0
<0xD3>	0
<0xD4>	0
<0xD5>	0
<0xD6>	0
<0xD7>	0
<0xD8>	0
<0xD9>	0
<0xDA>	0
<0xDB>	0
<0xDC>	0
<0xDD>	0
<0xDE>	0
<0xDF>	0
<0xE0>	0
<0xE1>	0
<0xE2>	0
<0xE3>	0
<0xE4>	0
<0xE5>	0
<0xE6>	0
<0xE7>	0
<0xE8>	0
<0xE9>	0
<0xEA>	0
<0xEB>	0
<0xEC>	0
<0xED>	0
<0xEE>	0
<0xEF>	0
<0xF0>	0
<0xF1>	0
<0xF2>	0
<0xF3>	0
<0xF4>	0
<0xF5>	0
<0xF6>	0
<0xF7>	0
<0xF8>	0
<0xF9>	0
<0xFA>	0
<0xFB>	0
<0xFC>	0
<0xFD>	0
<0xFE>	0
<0xFF>	0
▁t	-0
▁a	-1
er	-2
es	-3
en	-4
▁d	-5
▁s	-6
▁c	-7
▁l	-8
▁m	-9
in	-10
▁p	-11
ar	-12
▁h	-13
on	-14
an	-15
as	-16
om	-17
or	-18
▁T	-19
▁th	-20
os	-21
ou	-22
is	-23
▁w	-24
re	-25
▁I	-26
▁n	-27
▁b	-28
el	-29
qu	-30
▁es	-31
▁f	-32
at	-33
ed	-34
▁de	-35
▁to	-36
▁y	-37
ad	-38
un	-39
▁qu	-40
▁the	-41
it	-42
▁Tom	-43
al	-44
ing	-45
▁g	-46
▁you	-47
ent	-48
id	-49
▁E	-50
▁o	-51
▁que	-52
▁v	-53
▁un	-54
▁no	-55
ic	-56
▁ha	-57
▁la	-58
le	-59
▁en	-60
he	-61
us	-62
ta	-63
▁in	-64
▁M	-65
ll	-66
▁is	-67
ro	-68
ve	-69
▁el	-70
▁S	-71
▁¿	-72
am	-73
im	-74
▁me	-75
▁e	-76
▁an	-77
▁H	-78
▁se	-79
ci	-80
to	-81
ch	-82
▁N	-83
ra	-84
do	-85
te	-86
▁con	-87
▁of	-88
ay	-89
ir	-90
▁W	-91
▁L	-92
ol	-93
ien	-94
et	-95
ig	-96
▁re	-97
▁A	-98
ía	-99
▁al	-100
▁lo	-101
▁est	-102
ere	-103
▁be	-104
▁com	-105
▁The	-106
▁su	-107
▁No	-108
▁do	-109
▁Es	-110
▁D	-111
ab	-112
▁r	-113
ado	-114
▁Y	-115
ow	-116
▁li	-117
ver	-118
em	-119
ld	-120
ke	-121
ón	-122
▁mu	-123
▁par	-124
ant	-125
▁that	-126
th	-127
ce	-128
od	-129
▁on	-130
▁le	-131
▁for	-132
ier	-133
▁Mar	-134
▁was	-135
ter	-136
▁C	-137
▁go	-138
▁He	-139
▁wh	-140
▁he	-141
▁una	-142
ás	-143
▁it	-144
ur	-145
▁P	-146
▁ne	-147
▁Wh	-148
il	-149
ill	-150
tr	-151
▁Mary	-152
▁Th	-153
ente	-154
▁k	-155
▁and	-156
▁have	-157
ue	-158
▁los	-159
ut	-160
▁por	-161
▁per	-162
ion	-163
go	-164
ul	-165
▁di	-166
▁j	-167
▁You	-168
▁as	-169
ud	-170
▁está	-171
▁fr	-172
ith	-173
ly	-174
est	-175
▁can	-176
▁El	-177
▁tr	-178
▁ab	-179
▁my	-180
oc	-181
ec	-182
▁are	-183
ando	-184
▁las	-185
la	-186
ba	-187
▁with	-188
ht	-189
ust	-190
out	-191
▁ver	-192
▁pu	-193
▁not	-194
ok	-195
ould	-196
▁st	-197
▁cu	-198
▁hab	-199
Qu	-200
▁ex	-201
se	-202
▁don	-203
▁mi	-204
▁te	-205
lo	-206
ido	-207
▁your	-208
▁at	-209
▁so	-210
▁ac	-211
▁kn	-212
gu	-213
▁pro	-214
▁want	-215
▁her	-216
▁pr	-217
ap	-218
▁It	-219
▁para	-220
ia	-221
and	-222
io	-223
ada	-224
end	-225
▁his	-226
▁La	-227
▁She	-228
▁É	-229
▁ch	-230
▁this	-231
▁We	-232
▁has	-233
▁am	-234
▁esta	-235
pe	-236
ie	-237
▁más	-238
iv	-239
▁know	-240
▁Él	-241
ac	-242
▁sh	-243
jo	-244
▁Ell	-245
pr	-246
up	-247
▁like	-248
▁B	-249
▁much	-250
▁des	-251
ome	-252
ió	-253
one	-254
if	-255
ell	-256
um	-257
▁car	-258
av	-259
de	-260
▁ten	-261
▁del	-262
▁we	-263
▁Me	-264
▁tien	-265
▁pued	-266
oy	-267
era	-268
▁did	-269
▁wor	-270
st	-271
ción	-272
ight	-273
▁us	-274
▁cas	-275
ble	-276
▁"	-277
iz	-278
▁¡	-279
▁ar	-280
ag	-281
▁man	-282
cer	-283
▁pl	-284
ak	-285
ca	-286
emp	-287
ore	-288
▁tra	-289
ero	-290
▁him	-291
ink	-292
▁pre	-293
▁J	-294
▁F	-295
▁Ella	-296
bre	-297
▁si	-298
ist	-299
és	-300
pp	-301
all	-302
▁tu	-303
mo	-304
ess	-305
▁all	-306
ate	-307
▁ti	-308
ber	-309
ame	-310
▁tod	-311
ive	-312
ost	-313
▁son	-314
ther	-315
ot	-316
▁What	-317
ort	-318
▁qué	-319
ana	-320
▁pas	-321
án	-322
ish	-323
amos	-324
oun	-325
ake	-326
▁esc	-327
ple	-328
▁Do	-329
añ	-330
ime	-331
▁bu	-332
▁ser	-333
ice	-334
▁will	-335
▁what	-336
▁mis	-337
ct	-338
▁im	-339
per	-340
ora	-341
▁G	-342
▁any	-343
ez	-344
▁This	-345
▁hacer	-346
▁res	-347
toy	-348
ri	-349
ug	-350
▁muy	-351
oug	-352
▁tiene	-353
ard	-354
▁gr	-355
▁ro	-356
▁They	-357
ica	-358
ase	-359
very	-360
▁or	-361
▁ent	-362
der	-363
▁think	-364
thing	-365
▁very	-366
ida	-367
▁up	-368
ong	-369
▁En	-370
our	-371
ante	-372
▁V	-373
▁pe	-374
ces	-375
▁sol	-376
co	-377
▁from	-378
▁é	-379
gun	-380
▁U	-381
▁time	-382
▁bo	-383
Qué	-384
▁about	-385
▁sab	-386
▁O	-387
▁como	-388
▁had	-389
▁cl	-390
ens	-391
▁does	-392
én	-393
▁out	-394
br	-395
▁get	-396
emos	-397
ento	-398
cho	-399
idad	-400
ide	-401
▁My	-402
▁sa	-403
ind	-404
me	-405
▁one	-406
iero	-407
▁co	-408
ven	-409
▁but	-410
ico	-411
ation	-412
oso	-413
▁cam	-414
ath	-415
uer	-416
ma	-417
▁él	-418
cia	-419
▁tan	-420
ays	-421
ge	-422
ías	-423
▁sal	-424
que	-425
▁fue	-426
▁lle	-427
ano	-428
▁aqu	-429
▁real	-430
ga	-431
▁didn	-432
▁ll	-433
▁by	-434
▁here	-435
ry	-436
▁Los	-437
ave	-438
uel	-439
ach	-440
▁Mi	-441
mente	-442
▁fav	-443
▁casa	-444
fer	-445
ep	-446
▁gus	-447
▁need	-448
▁favor	-449
▁traba	-450
▁cre	-451
ión	-452
▁than	-453
▁going	-454
par	-455
▁habl	-456
▁ir	-457
ién	-458
▁there	-459
▁mo	-460
▁R	-461
ies	-462
▁were	-463
▁ad	-464
▁she	-465
▁imp	-466
▁cont	-467
▁There	-468
ear	-469
alk	-470
cion	-471
iendo	-472
ño	-473
▁ni	-474
▁enc	-475
▁work	-476
▁estaba	-477
▁dis	-478
son	-479
ine	-480
ast	-481
▁eso	-482
wn	-483
▁gusta	-484
▁good	-485
vo	-486
ite	-487
▁ay	-488
ous	-489
▁would	-490
▁Ten	-491
▁Yo	-492
▁Don	-493
ños	-494
▁mad	-495
▁Un	-496
▁every	-497
ina	-498
▁aquí	-499
ren	-500
▁hel	-501
ect	-502
res	-503
igo	-504
▁Qu	-505
iend	-506
▁How	-507
▁see	-508
▁That	-509
▁comp	-510
▁tom	-511
able	-512
▁look	-513
▁tiemp	-514
▁more	-515
▁sin	-516
Cu	-517
ree	-518
▁spe	-519
fe	-520
ck	-521
ún	-522
▁pero	-523
ito	-524
▁tiempo	-525
▁dr	-526
▁De	-527
▁todo	-528
▁este	-529
▁af	-530
▁em	-531
mos	-532
ja	-533
mas	-534
▁sus	-535
▁pod	-536
▁person	-537
▁Est	-538
▁Se	-539
▁pa	-540
eth	-541
▁Si	-542
▁mar	-543
▁fe	-544
▁bien	-545
▁doesn	-546
▁Esta	-547
▁po	-548
▁buen	-549
▁som	-550
ought	-551
▁Estoy	-552
▁ca	-553
▁mucho	-554
▁vis	-555
ound	-556
▁happ	-557
▁ra	-558
orm	-559
ose	-560
ita	-561
▁vez	-562
▁some	-563
▁should	-564
aba	-565
ados	-566
ult	-567
aron	-568
▁proble	-569
▁been	-570
▁nada	-571
ack	-572
ese	-573
▁when	-574
▁who	-575
pa	-576
ople	-577
▁eat	-578
▁come	-579
ans	-580
▁book	-581
▁inter	-582
ity	-583
pt	-584
ued	-585
▁sent	-586
▁hay	-587
▁help	-588
▁just	-589
▁could	-590
▁algo	-591
▁In	-592
ómo	-593
▁speak	-594
amente	-595
▁bus	-596
cid	-597
▁col	-598
▁puede	-599
jar	-600
eces	-601
▁too	-602
▁cor	-603
ather	-604
▁din	-605
lease	-606
sel	-607
Por	-608
▁Lo	-609
ici	-610
ato	-611
▁dif	-612
ater	-613
▁never	-614
▁tw	-615
red	-616
▁era	-617
ild	-618
ich	-619
iera	-620
day	-621
unca	-622
tros	-623
jor	-624
ual	-625
▁play	-626
iste	-627
▁exp	-628
▁yo	-629
▁ella	-630
▁puedo	-631
▁they	-632
za	-633
art	-634
ombre	-635
▁men	-636
ves	-637
gl	-638
▁ayud	-639
dad	-640
▁ah	-641
▁if	-642
▁sp	-643
▁compr	-644
ónde	-645
uest	-646
▁cuando	-647
▁got	-648
row	-649
▁friend	-650
ick	-651
▁cons	-652
▁people	-653
ara	-654
cir	-655
▁now	-656
itt	-657
▁dos	-658
▁ap	-659
▁op	-660
▁Al	-661
ty	-662
▁Why	-663
etter	-664
."	-665
▁read	-666
▁Le	-667
▁talk	-668
▁year	-669
ang	-670
ers	-671
int	-672
anc	-673
use	-674
bl	-675
▁qued	-676
▁mejor	-677
tes	-678
empre	-679
▁er	-680
▁fo	-681
▁Is	-682
▁int	-683
ino	-684
arn	-685
▁them	-686
▁last	-687
▁day	-688
▁say	-689
añana	-690
▁gu	-691
ios	-692
ure	-693
▁new	-694
ras	-695
▁fin	-696
▁Tod	-697
aría	-698
▁fl	-699
▁said	-700
▁gust	-701
▁pel	-702
▁pad	-703
▁Can	-704
▁nue	-705
▁how	-706
▁pol	-707
▁love	-708
▁tell	-709
▁home	-710
▁wr	-711
▁Tengo	-712
bro	-713
▁plan	-714
▁fu	-715
▁If	-716
je	-717
urn	-718
cil	-719
▁stud	-720
▁ask	-721
▁todos	-722
▁mal	-723
▁jo	-724
orn	-725
enta	-726
▁K	-727
▁poc	-728
tra	-729
▁off	-730
oney	-731
▁won	-732
be	-733
che	-734
▁hi	-735
▁neces	-736
ouse	-737
▁ter	-738
▁lot	-739
▁tar	-740
age	-741
▁only	-742
self	-743
▁our	-744
▁tengo	-745
▁hablar	-746
prend	-747
▁cal	-748
Cuán	-749
ways	-750
▁herm	-751
osa	-752
gr	-753
▁under	-754
▁Ch	-755
▁br	-756
▁long	-757
▁coc	-758
▁cr	-759
▁inv	-760
ores	-761
▁dijo	-762
ible	-763
▁bel	-764
▁rec	-765
▁mí	-766
▁mon	-767
pu	-768
ething	-769
ough	-770
ond	-771
▁back	-772
▁mat	-773
▁call	-774
▁trabajo	-775
▁llam	-776
▁always	-777
▁día	-778
▁take	-779
ip	-780
▁esp	-781
cul	-782
▁pregun	-783
so	-784
▁sm	-785
jer	-786
jos	-787
▁isn	-788
▁Este	-789
▁may	-790
▁esto	-791
▁dinero	-792
gar	-793
▁money	-794
ign	-795
▁cer	-796
▁mañana	-797
▁estoy	-798
▁many	-799
iado	-800
▁Are	-801
va	-802
▁vida	-803
▁bro	-804
usted	-805
▁Su	-806
▁old	-807
▁vol	-808
ile	-809
▁thing	-810
▁estud	-811
adie	-812
▁Quiero	-813
oston	-814
▁house	-815
▁están	-816
▁Boston	-817
▁años	-818
▁really	-819
ely	-820
▁two	-821
▁something	-822
No	-823
▁nos	-824
▁libro	-825
▁viv	-826
▁fam	-827
▁estar	-828
ody	-829
ence	-830
ents	-831
du	-832
▁Las	-833
▁quiero	-834
▁oc	-835
▁make	-836
▁Te	-837
ontr	-838
uch	-839
▁tel	-840
▁ide	-841
iar	-842
▁bl	-843
ian	-844
▁va	-845
▁An	-846
ís	-847
▁other	-848
▁esper	-849
imos	-850
▁med	-851
▁Por	-852
ima	-853
▁Jap	-854
iere	-855
gua	-856
ied	-857
▁hace	-858
▁child	-859
▁right	-860
ass	-861
▁sobre	-862
▁must	-863
▁When	-864
bo	-865
▁reg	-866
ería	-867
▁verdad	-868
ft	-869
gain	-870
▁usted	-871
▁ci	-872
▁ing	-873
▁decir	-874
da	-875
?"	-876
ten	-877
aré	-878
▁anything	-879
ieron	-880
▁again	-881
ura	-882
▁solo	-883
les	-884
encia	-885
▁haber	-886
▁Let	-887
▁told	-888
▁went	-889
car	-890
ict	-891
▁ve	-892
▁Where	-893
▁mun	-894
ece	-895
▁cap	-896
▁poco	-897
ance	-898
ated	-899
▁deber	-900
▁sta	-901
▁sto	-902
orrow	-903
reo	-904
ciones	-905
▁ke	-906
no	-907
▁fir	-908
▁made	-909
▁demas	-910
▁well	-911
▁still	-912
▁min	-913
▁import	-914
itar	-915
ying	-916
▁siempre	-917
atch	-918
▁over	-919
body	-920
▁pres	-921
▁encontr	-922
ales	-923
▁ho	-924
ved	-925
▁resp	-926
ord	-927
rench	-928
▁room	-929
aste	-930
chool	-931
▁Engl	-932
▁grand	-933
▁today	-934
▁life	-935
▁French	-936
▁lan	-937
▁fel	-938
▁hombre	-939
ría	-940
▁into	-941
▁fa	-942
entes	-943
▁their	-944
▁Please	-945
▁dog	-946
fore	-947
read	-948
▁Who	-949
▁pal	-950
▁feel	-951
▁mundo	-952
ire	-953
uto	-954
▁Jo	-955
man	-956
mer	-957
arme	-958
ise	-959
olo	-960
▁learn	-961
osotros	-962
▁cab	-963
ones	-964
▁ins	-965
▁tres	-966
▁school	-967
▁better	-968
ieres	-969
▁quiere	-970
▁famil	-971
▁sw	-972
▁Hay	-973
ena	-974
oss	-975
▁demasiado	-976
irl	-977
fr	-978
izo	-979
ío	-980
▁antes	-981
▁ob	-982
ieve	-983
▁after	-984
ait	-985
▁three	-986
▁dur	-987
ary	-988
▁inc	-989
ario	-990
▁ahora	-991
▁sé	-992
Es	-993
▁ya	-994
▁live	-995
▁Joh	-996
▁segu	-997
▁thought	-998
ne	-999
▁prof	-1000
▁prim	-1001
▁night	-1002
▁nunca	-1003
▁padre	-1004
▁franc	-1005
▁John	-1006
tas	-1007
tos	-1008
▁langu	-1009
Cómo	-1010
elo	-1011
▁Creo	-1012
▁había	-1013
▁aw	-1014
iver	-1015
tor	-1016
▁francés	-1017
osas	-1018
ugar	-1019
▁happen	-1020
▁Ellos	-1021
▁inf	-1022
▁ven	-1023
vis	-1024
▁before	-1025
▁English	-1026
ub	-1027
ittle	-1028
po	-1029
vid	-1030
▁father	-1031
▁Soy	-1032
iene	-1033
leep	-1034
ál	-1035
▁fun	-1036
▁algun	-1037
▁sabe	-1038
▁left	-1039
endo	-1040
▁girl	-1041
ador	-1042
▁years	-1043
az	-1044
▁way	-1045
▁part	-1046
▁first	-1047
▁Did	-1048
▁gente	-1049
▁tarde	-1050
▁pens	-1051
ctor	-1052
▁little	-1053
arse	-1054
▁teach	-1055
stand	-1056
ger	-1057
▁down	-1058
▁gre	-1059
▁conf	-1060
▁sec	-1061
▁idea	-1062
▁María	-1063
▁nuest	-1064
min	-1065
Dónde	-1066
▁aprend	-1067
ará	-1068
uro	-1069
rib	-1070
ful	-1071
▁str	-1072
ester	-1073
▁Cu	-1074
ib	-1075
avía	-1076
▁acc	-1077
Pued	-1078
▁soy	-1079
▁id	-1080
▁Every	-1081
lés	-1082
ña	-1083
▁noche	-1084
▁hum	-1085
iento	-1086
▁inglés	-1087
▁amig	-1088
▁hizo	-1089
▁tomorrow	-1090
▁ese	-1091
▁coun	-1092
▁dec	-1093
▁estás	-1094
▁where	-1095
▁understand	-1096
▁comer	-1097
ús	-1098
guien	-1099
▁ba	-1100
▁fuer	-1101
▁hand	-1102
xt	-1103
ital	-1104
amb	-1105
los	-1106
▁mismo	-1107
uela	-1108
ienes	-1109
▁start	-1110
▁mes	-1111
▁Com	-1112
▁hor	-1113
Quién	-1114
ons	-1115
▁To	-1116
▁wait	-1117
▁perd	-1118
▁arr	-1119
▁beca	-1120
▁rem	-1121
▁because	-1122
ew	-1123
ues	-1124
ank	-1125
▁accid	-1126
esterday	-1127
▁ear	-1128
▁dej	-1129
▁tenía	-1130
▁find	-1131
ek	-1132
▁buy	-1133
▁world	-1134
arte	-1135
▁put	-1136
▁boy	-1137
▁hoy	-1138
▁nuevo	-1139
▁mujer	-1140
ions	-1141
▁perro	-1142
▁z	-1143
▁came	-1144
▁hecho	-1145
▁saw	-1146
gan	-1147
ment	-1148
▁problem	-1149
▁Ya	-1150
▁win	-1151
▁friends	-1152
▁Eso	-1153
vel	-1154
ann	-1155
tro	-1156
▁lik	-1157
fic	-1158
ried	-1159
▁mom	-1160
▁ol	-1161
▁ph	-1162
ista	-1163
ían	-1164
▁así	-1165
▁llev	-1166
▁Japan	-1167
lt	-1168
udad	-1169
▁wanted	-1170
▁coche	-1171
▁libr	-1172
ds	-1173
▁drink	-1174
igh	-1175
▁ed	-1176
▁hard	-1177
▁bar	-1178
aut	-1179
▁hot	-1180
▁tú	-1181
▁everything	-1182
▁Par	-1183
▁lar	-1184
▁act	-1185
▁pes	-1186
▁hasta	-1187
▁cat	-1188
▁without	-1189
▁mother	-1190
▁give	-1191
▁His	-1192
▁Have	-1193
▁días	-1194
éis	-1195
▁ciudad	-1196
Est	-1197
ys	-1198
ving	-1199
▁nothing	-1200
▁desc	-1201
▁water	-1202
esta	-1203
▁seem	-1204
bol	-1205
▁prop	-1206
▁lun	-1207
▁app	-1208
▁esa	-1209
▁turn	-1210
▁conoc	-1211
▁equ	-1212
▁madre	-1213
▁hora	-1214
Te	-1215
▁cosas	-1216
▁asked	-1217
▁rain	-1218
▁palab	-1219
antes	-1220
▁Pued	-1221
den	-1222
▁pla	-1223
▁agua	-1224
▁Tomás	-1225
ife	-1226
ready	-1227
ustr	-1228
▁name	-1229
▁already	-1230
▁stay	-1231
▁sleep	-1232
▁ú	-1233
ange	-1234
erta	-1235
▁gan	-1236
almente	-1237
▁porque	-1238
idos	-1239
▁sem	-1240
ación	-1241
▁sit	-1242
ting	-1243
▁let	-1244
▁Todos	-1245
▁bre	-1246
▁beaut	-1247
áp	-1248
▁job	-1249
▁uno	-1250
rió	-1251
▁sur	-1252
▁care	-1253
▁nadie	-1254
pués	-1255
▁menos	-1256
▁yesterday	-1257
ced	-1258
▁entre	-1259
▁children	-1260
▁voy	-1261
▁sea	-1262
ambién	-1263
▁watch	-1264
ár	-1265
▁week	-1266
pl	-1267
igu	-1268
cio	-1269
▁che	-1270
▁used	-1271
..	-1272
anto	-1273
▁dar	-1274
ér	-1275
▁sor	-1276
▁tem	-1277
▁anim	-1278
ivo	-1279
und	-1280
▁cómo	-1281
orta	-1282
▁camb	-1283
▁use	-1284
uc	-1285
▁auto	-1286
▁deb	-1287
▁happy	-1288
▁ever	-1289
atos	-1290
cept	-1291
▁doing	-1292
akes	-1293
ical	-1294
▁leave	-1295
ami	-1296
cias	-1297
ono	-1298
ció	-1299
▁brother	-1300
▁believe	-1301
▁quería	-1302
▁gustaría	-1303
▁sho	-1304
▁Esp	-1305
▁lleg	-1306
anni	-1307
▁dorm	-1308
▁alm	-1309
▁gran	-1310
ólo	-1311
▁Neces	-1312
▁wants	-1313
▁Yanni	-1314
ph	-1315
▁away	-1316
▁doctor	-1317
uv	-1318
▁took	-1319
▁lost	-1320
▁niños	-1321
▁da	-1322
▁As	-1323
▁estudi	-1324
▁pron	-1325
▁decid	-1326
▁wom	-1327
▁estado	-1328
zo	-1329
ars	-1330
wer	-1331
imes	-1332
ister	-1333
▁otra	-1334
▁Nunca	-1335
▁gl	-1336
▁visit	-1337
▁exam	-1338
▁amigos	-1339
▁please	-1340
▁problema	-1341
▁bad	-1342
▁trans	-1343
▁rep	-1344
▁even	-1345
▁show	-1346
▁escrib	-1347
▁things	-1348
ín	-1349
erte	-1350
▁countr	-1351
rec	-1352
▁nat	-1353
uso	-1354
▁next	-1355
▁walk	-1356
tain	-1357
adas	-1358
ícil	-1359
▁bought	-1360
▁language	-1361
▁big	-1362
▁difícil	-1363
▁door	-1364
zón	-1365
▁veces	-1366
▁sure	-1367
▁pos	-1368
ícul	-1369
iful	-1370
med	-1371
▁Sé	-1372
▁best	-1373
▁ta	-1374
alia	-1375
▁parece	-1376
▁tienes	-1377
▁escuela	-1378
▁meet	-1379
▁puedes	-1380
ias	-1381
▁fal	-1382
▁soon	-1383
til	-1384
▁vas	-1385
aking	-1386
▁prom	-1387
▁personas	-1388
ugh	-1389
ious	-1390
▁Cuando	-1391
▁quién	-1392
▁beautiful	-1393
itación	-1394
illa	-1395
▁lu	-1396
▁vi	-1397
▁vuel	-1398
▁mil	-1399
▁gave	-1400
▁amigo	-1401
▁Fr	-1402
icos	-1403
▁found	-1404
▁why	-1405
▁Esto	-1406
▁open	-1407
leg	-1408
ock	-1409
▁histor	-1410
tras	-1411
▁mus	-1412
▁being	-1413
▁hacerlo	-1414
▁Your	-1415
ates	-1416
▁same	-1417
▁list	-1418
▁youn	-1419
Cuál	-1420
ember	-1421
▁mayor	-1422
▁pasado	-1423
▁también	-1424
▁vac	-1425
orning	-1426
imo	-1427
▁abs	-1428
ts	-1429
▁Des	-1430
▁ans	-1431
▁tus	-1432
▁ag	-1433
pres	-1434
▁morning	-1435
▁tele	-1436
▁año	-1437
▁bed	-1438
▁últ	-1439
▁Está	-1440
▁profes	-1441
▁tienen	-1442
▁otro	-1443
▁fuera	-1444
entos	-1445
▁pap	-1446
▁niño	-1447
▁Hab	-1448
ender	-1449
▁ning	-1450
▁semana	-1451
▁comple	-1452
▁país	-1453
pez	-1454
▁All	-1455
▁suf	-1456
ban	-1457
▁eas	-1458
cial	-1459
▁most	-1460
▁sing	-1461
▁termin	-1462
▁quieres	-1463
▁les	-1464
uth	-1465
▁cle	-1466
▁own	-1467
ular	-1468
▁minut	-1469
▁ma	-1470
▁gra	-1471
▁tre	-1472
▁met	-1473
ory	-1474
ace	-1475
▁dic	-1476
▁desde	-1477
▁puerta	-1478
▁hur	-1479
unto	-1480
▁ráp	-1481
▁buena	-1482
▁Austr	-1483
▁quest	-1484
▁tener	-1485
▁couldn	-1486
▁fá	-1487
▁teacher	-1488
▁hour	-1489
▁gen	-1490
▁alguien	-1491
▁late	-1492
▁err	-1493
▁persona	-1494
▁wasn	-1495
▁Sami	-1496
edo	-1497
ream	-1498
▁jue	-1499
▁len	-1500
▁pat	-1501
anos	-1502
ific	-1503
▁dónde	-1504
tamente	-1505
▁art	-1506
▁mir	-1507
▁kill	-1508
▁nombre	-1509
▁ey	-1510
▁lugar	-1511
▁saber	-1512
▁done	-1513
ír	-1514
▁nosotros	-1515
icas	-1516
▁enfer	-1517
De	-1518
ret	-1519
▁bec	-1520
▁habitación	-1521
▁hear	-1522
Me	-1523
▁great	-1524
▁hermano	-1525
▁Ah	-1526
▁pi	-1527
▁Deber	-1528
mit	-1529
▁tanto	-1530
ork	-1531
▁sim	-1532
▁knows	-1533
▁bir	-1534
▁entr	-1535
jas	-1536
▁comprar	-1537
▁sister	-1538
udo	-1539
▁peque	-1540
alo	-1541
any	-1542
get	-1543
uerdo	-1544
▁olvid	-1545
▁remember	-1546
▁cin	-1547
▁Some	-1548
▁disc	-1549
gas	-1550
▁pass	-1551
iente	-1552
▁escuch	-1553
▁sc	-1554
▁eres	-1555
▁vie	-1556
▁able	-1557
ciendo	-1558
anta	-1559
other	-1560
▁pien	-1561
▁likes	-1562
▁hope	-1563
▁often	-1564
▁wrong	-1565
are	-1566
▁val	-1567
ortun	-1568
illo	-1569
▁dice	-1570
na	-1571
▁allí	-1572
▁después	-1573
ner	-1574
▁mov	-1575
▁ayer	-1576
▁sub	-1577
gry	-1578
oma	-1579
▁apar	-1580
▁muchos	-1581
▁intent	-1582
▁looking	-1583
▁country	-1584
ata	-1585
▁exper	-1586
▁dejar	-1587
▁enough	-1588
▁kind	-1589
▁alone	-1590
▁dem	-1591
▁Eres	-1592
▁dist	-1593
▁stop	-1594
▁yet	-1595
▁keep	-1596
rá	-1597
▁idi	-1598
▁habla	-1599
▁caf	-1600
▁Re	-1601
▁letter	-1602
▁sk	-1603
▁run	-1604
▁ocup	-1605
▁todas	-1606
▁Australia	-1607
▁Nadie	-1608
▁train	-1609
▁beb	-1610
not	-1611
▁sign	-1612
▁seguro	-1613
▁dio	-1614
▁cold	-1615
▁Nos	-1616
ally	-1617
▁Voy	-1618
▁Todo	-1619
▁ún	-1620
▁ped	-1621
▁answer	-1622
▁univer	-1623
▁interest	-1624
yo	-1625
▁books	-1626
▁fácil	-1627
▁cuenta	-1628
▁Go	-1629
▁empez	-1630
▁seen	-1631
act	-1632
erv	-1633
isa	-1634
ually	-1635
▁true	-1636
▁visto	-1637
lic	-1638
▁leer	-1639
▁feliz	-1640
▁happened	-1641
▁these	-1642
ros	-1643
▁ev	-1644
▁grande	-1645
▁ellos	-1646
▁debería	-1647
▁durante	-1648
▁May	-1649
raz	-1650
▁ton	-1651
▁libros	-1652
át	-1653
▁Be	-1654
▁tal	-1655
ning	-1656
tó	-1657
ished	-1658
▁pay	-1659
▁hom	-1660
iss	-1661
▁han	-1662
omp	-1663
▁os	-1664
▁rel	-1665
▁via	-1666
▁food	-1667
▁cannot	-1668
ited	-1669
ial	-1670
fect	-1671
▁far	-1672
▁around	-1673
▁Tu	-1674
quier	-1675
▁desp	-1676
▁young	-1677
▁necesit	-1678
ffe	-1679
▁sn	-1680
▁mús	-1681
íamos	-1682
▁interes	-1683
▁cant	-1684
▁comida	-1685
▁Una	-1686
▁bic	-1687
we	-1688
cle	-1689
▁cost	-1690
▁end	-1691
▁aprender	-1692
ived	-1693
▁trad	-1694
▁ense	-1695
▁cada	-1696
▁class	-1697
▁prepar	-1698
Cuándo	-1699
▁tren	-1700
▁sabía	-1701
▁gustan	-1702
irt	-1703
▁Hoy	-1704
▁married	-1705
".	-1706
▁"¿	-1707
▁month	-1708
▁pon	-1709
▁bueno	-1710
inar	-1711
▁Con	-1712
pped	-1713
▁pag	-1714
▁creo	-1715
cl	-1716
gún	-1717
yer	-1718
▁tired	-1719
old	-1720
▁vino	-1721
▁cono	-1722
▁pret	-1723
ize	-1724
▁bor	-1725
cess	-1726
▁swim	-1727
sa	-1728
osp	-1729
ficult	-1730
gra	-1731
▁difficult	-1732
▁condu	-1733
▁todavía	-1734
▁jun	-1735
▁place	-1736
▁pie	-1737
▁café	-1738
▁pronto	-1739
bres	-1740
ffee	-1741
entro	-1742
▁extra	-1743
▁polic	-1744
▁study	-1745
eza	-1746
▁lim	-1747
▁such	-1748
ierto	-1749
▁days	-1750
▁quer	-1751
▁ayuda	-1752
▁volver	-1753
▁conm	-1754
▁prob	-1755
▁heard	-1756
▁fi	-1757
▁another	-1758
ings	-1759
▁Ahora	-1760
ám	-1761
vert	-1762
gg	-1763
▁Pens	-1764
▁Solo	-1765
▁sat	-1766
lar	-1767
▁hic	-1768
▁gato	-1769
▁cans	-1770
▁while	-1771
ider	-1772
▁once	-1773
▁toda	-1774
▁conmigo	-1775
▁nuestra	-1776
lain	-1777
olog	-1778
▁ind	-1779
▁cual	-1780
▁miss	-1781
ecto	-1782
▁hosp	-1783
▁miedo	-1784
▁mista	-1785
cha	-1786
▁ru	-1787
▁muchas	-1788
▁Necesito	-1789
▁coffee	-1790
▁city	-1791
▁hermana	-1792
▁pud	-1793
▁ref	-1794
▁conse	-1795
ocup	-1796
▁llegar	-1797
▁televis	-1798
▁knew	-1799
▁woman	-1800
▁wish	-1801
▁haciendo	-1802
▁sí	-1803
▁sido	-1804
ancia	-1805
▁truth	-1806
rit	-1807
▁jug	-1808
▁dream	-1809
▁ago	-1810
una	-1811
▁Amer	-1812
▁hotel	-1813
▁looks	-1814
▁differ	-1815
als	-1816
▁bot	-1817
▁dep	-1818
▁clase	-1819
ído	-1820
▁padres	-1821
ating	-1822
▁alguna	-1823
▁called	-1824
ors	-1825
raid	-1826
▁vo	-1827
arlo	-1828
▁Ese	-1829
tru	-1830
▁Sh	-1831
▁sue	-1832
▁acer	-1833
▁party	-1834
▁nuestro	-1835
sted	-1836
▁cur	-1837
▁trabaj	-1838
▁opin	-1839
▁wife	-1840
▁vend	-1841
▁afraid	-1842
▁contigo	-1843
▁nov	-1844
▁died	-1845
▁break	-1846
ised	-1847
▁ret	-1848
▁ment	-1849
▁result	-1850
ever	-1851
▁adv	-1852
▁each	-1853
▁lives	-1854
esto	-1855
▁lev	-1856
anas	-1857
▁ahí	-1858
▁mind	-1859
entras	-1860
▁haven	-1861
ins	-1862
▁música	-1863
atoe	-1864
▁diez	-1865
▁rápido	-1866
iesta	-1867
▁Siempre	-1868
▁hospital	-1869
▁Z	-1870
▁hijo	-1871
▁vivir	-1872
▁podría	-1873
▁which	-1874
▁películ	-1875
▁preocup	-1876
▁joven	-1877
cas	-1878
▁family	-1879
▁listen	-1880
▁Tenemos	-1881
▁red	-1882
▁Her	-1883
▁thr	-1884
▁fiesta	-1885
▁parents	-1886
▁Per	-1887
▁bet	-1888
▁lengua	-1889
▁busy	-1890
andon	-1891
▁casi	-1892
▁cosa	-1893
▁carta	-1894
atoeba	-1895
ane	-1896
eno	-1897
▁sufici	-1898
▁Tú	-1899
▁parte	-1900
▁momento	-1901
▁mod	-1902
▁vive	-1903
Sab	-1904
oche	-1905
▁cul	-1906
▁av	-1907
oking	-1908
▁prin	-1909
▁small	-1910
▁salir	-1911
▁its	-1912
▁profesor	-1913
Cuánto	-1914
▁rob	-1915
▁wonder	-1916
▁donde	-1917
ages	-1918
▁try	-1919
▁familia	-1920
▁abr	-1921
▁bast	-1922
▁-	-1923
▁ley	-1924
tar	-1925
▁music	-1926
▁pueden	-1927
▁started	-1928
▁eyes	-1929
▁Deb	-1930
ít	-1931
anger	-1932
▁talking	-1933
▁important	-1934
▁har	-1935
ether	-1936
▁matter	-1937
▁historia	-1938
▁cinco	-1939
▁ayudar	-1940
rist	-1941
▁ale	-1942
▁few	-1943
▁reci	-1944
▁easy	-1945
▁Tatoeba	-1946
▁word	-1947
▁contr	-1948
▁tried	-1949
▁yourself	-1950
▁nad	-1951
▁sun	-1952
▁sólo	-1953
▁Japón	-1954
▁sl	-1955
ense	-1956
fono	-1957
ossible	-1958
▁abandon	-1959
▁Would	-1960
▁siento	-1961
▁Som	-1962
▁cuán	-1963
▁fish	-1964
▁cama	-1965
▁parec	-1966
▁contra	-1967
▁telé	-1968
▁bi	-1969
▁num	-1970
▁almost	-1971
▁someone	-1972
uvo	-1973
▁temp	-1974
▁those	-1975
▁Tienes	-1976
zco	-1977
▁Our	-1978
▁war	-1979
▁aren	-1980
▁comm	-1981
▁hair	-1982
▁amor	-1983
▁vent	-1984
año	-1985
ira	-1986
▁exc	-1987
▁change	-1988
ases	-1989
▁jap	-1990
▁getting	-1991
zar	-1992
▁aut	-1993
▁five	-1994
gether	-1995
▁tomar	-1996
▁write	-1997
▁arm	-1998
▁die	-1999
ierra	-2000
iones	-2001
▁else	-2002
▁extr	-2003
▁accident	-2004
icle	-2005
▁ojos	-2006
▁agr	-2007
▁trat	-2008
▁Pensé	-2009
▁difer	-2010
▁horas	-2011
▁light	-2012
▁encontrar	-2013
og	-2014
▁sac	-2015
▁seems	-2016
▁bol	-2017
ieras	-2018
ations	-2019
▁produ	-2020
▁ham	-2021
▁mucha	-2022
▁Tok	-2023
▁hub	-2024
▁Japanese	-2025
▁ele	-2026
Puedo	-2027
ition	-2028
ale	-2029
▁Ar	-2030
alth	-2031
▁resta	-2032
vers	-2033
▁super	-2034
▁Espero	-2035
▁anyone	-2036
éd	-2037
▁dig	-2038
▁news	-2039
▁acuerdo	-2040
▁primera	-2041
cep	-2042
▁Am	-2043
icho	-2044
▁God	-2045
▁teléfono	-2046
▁dormir	-2047
▁bit	-2048
▁mor	-2049
▁llor	-2050
▁hun	-2051
▁says	-2052
▁wear	-2053
▁hijos	-2054
▁through	-2055
▁question	-2056
atro	-2057
▁early	-2058
▁looked	-2059
▁together	-2060
▁Ger	-2061
▁Mon	-2062
▁beh	-2063
▁then	-2064
▁Estamos	-2065
▁reading	-2066
▁trabajar	-2067
▁gol	-2068
Estás	-2069
▁high	-2070
▁transl	-2071
▁att	-2072
▁vay	-2073
▁cerca	-2074
▁forget	-2075
▁pregunta	-2076
▁pop	-2077
▁restaur	-2078
▁problemas	-2079
▁importante	-2080
▁St	-2081
▁Does	-2082
▁pid	-2083
▁Estaba	-2084
dow	-2085
▁char	-2086
▁ig	-2087
▁Dios	-2088
ea	-2089
isto	-2090
▁emp	-2091
▁pelig	-2092
▁palabras	-2093
▁cry	-2094
▁coming	-2095
▁consider	-2096
ff	-2097
▁Aqu	-2098
▁podía	-2099
anco	-2100
▁cum	-2101
▁might	-2102
▁phone	-2103
▁palabra	-2104
▁Sp	-2105
▁bastante	-2106
nos	-2107
urr	-2108
▁myself	-2109
▁ár	-2110
▁eng	-2111
▁env	-2112
▁sil	-2113
▁imag	-2114
▁realmente	-2115
onces	-2116
▁mano	-2117
▁table	-2118
▁pen	-2119
ness	-2120
▁beg	-2121
▁flow	-2122
▁accidente	-2123
▁pict	-2124
▁dicho	-2125
▁razón	-2126
▁playing	-2127
▁Ac	-2128
more	-2129
▁bas	-2130
▁eating	-2131
Has	-2132
▁fum	-2133
▁enseñ	-2134
▁Esa	-2135
▁fut	-2136
friend	-2137
▁comen	-2138
▁caus	-2139
▁fire	-2140
▁Fu	-2141
ject	-2142
land	-2143
Pod	-2144
▁ant	-2145
▁def	-2146
▁mine	-2147
iness	-2148
▁anymore	-2149
uter	-2150
▁exist	-2151
▁hate	-2152
verdad	-2153
▁od	-2154
▁air	-2155
▁dir	-2156
▁var	-2157
Tienes	-2158
lla	-2159
ush	-2160
▁jugar	-2161
gel	-2162
▁na	-2163
▁Fue	-2164
▁rad	-2165
▁fast	-2166
▁mean	-2167
▁pelo	-2168
▁novel	-2169
eo	-2170
▁situ	-2171
▁until	-2172
▁German	-2173
▁necesita	-2174
mp	-2175
▁bra	-2176
▁window	-2177
▁ate	-2178
▁present	-2179
idas	-2180
▁tall	-2181
▁hours	-2182
▁times	-2183
ason	-2184
▁debe	-2185
▁tipo	-2186
▁needs	-2187
▁since	-2188
▁words	-2189
▁árbol	-2190
▁computer	-2191
▁neg	-2192
▁alto	-2193
▁menudo	-2194
▁importa	-2195
▁near	-2196
▁pasó	-2197
Puedes	-2198
▁extran	-2199
▁himself	-2200
ele	-2201
▁At	-2202
▁mem	-2203
▁señ	-2204
▁color	-2205
ics	-2206
osed	-2207
las	-2208
▁game	-2209
▁capital	-2210
got	-2211
▁kid	-2212
▁mesa	-2213
▁mientras	-2214
ract	-2215
quiera	-2216
▁Pre	-2217
▁heart	-2218
▁stand	-2219
▁danger	-2220
erto	-2221
here	-2222
▁Come	-2223
▁corr	-2224
imiento	-2225
ily	-2226
▁busc	-2227
▁expect	-2228
ood	-2229
ween	-2230
▁mos	-2231
▁makes	-2232
▁wouldn	-2233
▁tend	-2234
▁plane	-2235
▁estudiar	-2236
▁corre	-2237
▁dinner	-2238
▁pá	-2239
▁decis	-2240
▁az	-2241
omas	-2242
▁elec	-2243
▁tempr	-2244
▁Everyone	-2245
▁tenemos	-2246
▁acab	-2247
ye	-2248
▁nú	-2249
▁dol	-2250
icina	-2251
▁Tell	-2252
Quieres	-2253
lack	-2254
▁viene	-2255
▁policía	-2256
▁venir	-2257
▁cuid	-2258
cip	-2259
oud	-2260
▁TV	-2261
▁Euro	-2262
▁supp	-2263
▁acost	-2264
▁glass	-2265
▁fuerte	-2266
▁lad	-2267
▁These	-2268
▁number	-2269
▁prefer	-2270
▁One	-2271
▁fell	-2272
▁estaban	-2273
erg	-2274
ices	-2275
ught	-2276
ural	-2277
▁thir	-2278
▁Usted	-2279
▁Todavía	-2280
▁película	-2281
óx	-2282
▁dom	-2283
▁sum	-2284
▁cuar	-2285
▁guitar	-2286
▁levant	-2287
▁everyone	-2288
▁emb	-2289
▁temprano	-2290
▁dev	-2291
iso	-2292
port	-2293
rible	-2294
▁snow	-2295
▁enem	-2296
▁sick	-2297
▁forma	-2298
▁hands	-2299
▁laugh	-2300
▁Tr	-2301
▁law	-2302
▁escribir	-2303
...	-2304
rías	-2305
▁ready	-2306
▁both	-2307
▁cerr	-2308
▁puso	-2309
▁reun	-2310
▁Ex	-2311
▁So	-2312
▁hac	-2313
▁camino	-2314
jero	-2315
▁tax	-2316
aciones	-2317
▁between	-2318
▁estamos	-2319
llow	-2320
▁murió	-2321
uss	-2322
▁méd	-2323
illas	-2324
▁working	-2325
▁fall	-2326
▁volv	-2327
▁univers	-2328
▁ustedes	-2329
ches	-2330
▁add	-2331
▁Much	-2332
▁milk	-2333
ately	-2334
▁order	-2335
▁salud	-2336
tern	-2337
▁lado	-2338
▁dere	-2339
▁tuvo	-2340
puesta	-2341
▁Thank	-2342
▁experien	-2343
af	-2344
óm	-2345
rob	-2346
medi	-2347
reet	-2348
▁Could	-2349
▁leg	-2350
▁cook	-2351
▁gener	-2352
▁cho	-2353
▁angry	-2354
▁flo	-2355
▁Para	-2356
▁sound	-2357
▁surpr	-2358
▁Christ	-2359
▁Deberías	-2360
cado	-2361
▁dro	-2362
▁fil	-2363
ierno	-2364
▁rich	-2365
▁Tiene	-2366
▁esposa	-2367
aro	-2368
▁suc	-2369
▁dress	-2370
▁zap	-2371
ior	-2372
mero	-2373
▁equiv	-2374
ik	-2375
▁unos	-2376
▁comes	-2377
▁podemos	-2378
En	-2379
▁ext	-2380
▁park	-2381
ilidad	-2382
▁nueva	-2383
▁contin	-2384
▁hombres	-2385
ición	-2386
▁full	-2387
▁China	-2388
▁piano	-2389
▁idioma	-2390
ama	-2391
▁bab	-2392
▁ste	-2393
▁mant	-2394
▁error	-2395
amp	-2396
▁cabeza	-2397
iri	-2398
ilar	-2399
ash	-2400
▁And	-2401
▁aún	-2402
▁also	-2403
▁cualquier	-2404
▁pasar	-2405
▁Nobody	-2406
▁languages	-2407
▁dejó	-2408
▁espe	-2409
▁against	-2410
vos	-2411
▁ju	-2412
▁born	-2413
▁frío	-2414
▁sentence	-2415
ute	-2416
▁lla	-2417
ither	-2418
▁face	-2419
▁goes	-2420
▁Esper	-2421
▁favorite	-2422
ator	-2423
▁nues	-2424
▁pasa	-2425
▁próx	-2426
eremos	-2427
enas	-2428
▁rest	-2429
▁waiting	-2430
▁cora	-2431
▁trying	-2432
upid	-2433
▁less	-2434
▁acerca	-2435
oca	-2436
▁Pr	-2437
▁bes	-2438
bas	-2439
ward	-2440
▁lunes	-2441
▁story	-2442
éj	-2443
iva	-2444
top	-2445
▁Span	-2446
ughter	-2447
▁intel	-2448
▁nadar	-2449
cel	-2450
bles	-2451
iction	-2452
▁chang	-2453
▁pretty	-2454
▁death	-2455
▁having	-2456
uerra	-2457
▁princip	-2458
▁leche	-2459
▁forgot	-2460
▁fueron	-2461
▁número	-2462
▁minutos	-2463
uck	-2464
ump	-2465
▁calle	-2466
▁meeting	-2467
jó	-2468
▁llo	-2469
▁spend	-2470
zó	-2471
ouch	-2472
work	-2473
▁nice	-2474
▁Nuest	-2475
▁orden	-2476
▁único	-2477
▁Give	-2478
▁students	-2479
ket	-2480
▁Son	-2481
▁Sus	-2482
▁será	-2483
▁past	-2484
▁scar	-2485
▁muerte	-2486
▁head	-2487
▁hurt	-2488
▁lunch	-2489
▁última	-2490
▁free	-2491
▁perf	-2492
▁shoes	-2493
▁ran	-2494
▁six	-2495
▁misma	-2496
▁poder	-2497
▁punto	-2498
▁white	-2499
iter	-2500
ized	-2501
orte	-2502
▁hacia	-2503
▁sueño	-2504
ives	-2505
▁clo	-2506
▁pan	-2507
▁tree	-2508
▁decided	-2509
añol	-2510
itch	-2511
▁quien	-2512
▁living	-2513
ré	-2514
▁Gra	-2515
▁sigu	-2516
▁build	-2517
▁minutes	-2518
▁estación	-2519
▁Bo	-2520
▁mol	-2521
▁wash	-2522
Hay	-2523
▁Lle	-2524
▁Will	-2525
emente	-2526
▁movie	-2527
▁prote	-2528
▁On	-2529
iled	-2530
▁hon	-2531
▁song	-2532
▁agrad	-2533
▁enter	-2534
▁Monday	-2535
▁primer	-2536
▁station	-2537
edor	-2538
▁Take	-2539
▁encanta	-2540
uta	-2541
adores	-2542
▁español	-2543
aban	-2544
ently	-2545
▁rela	-2546
▁falta	-2547
▁otros	-2548
led	-2549
unt	-2550
▁four	-2551
▁others	-2552
▁arrived	-2553
▁Parece	-2554
▁police	-2555
▁usually	-2556
▁ech	-2557
▁dije	-2558
▁edad	-2559
▁Spanish	-2560
▁bicicle	-2561
con	-2562
▁set	-2563
▁clean	-2564
itud	-2565
▁cort	-2566
▁incl	-2567
▁manera	-2568
ilo	-2569
uno	-2570
▁mas	-2571
▁cara	-2572
▁cent	-2573
▁reco	-2574
▁chica	-2575
▁sorry	-2576
▁follow	-2577
▁ningún	-2578
▁daughter	-2579
cu	-2580
guas	-2581
▁enf	-2582
▁arre	-2583
▁felt	-2584
▁limp	-2585
▁Which	-2586
mar	-2587
ñas	-2588
▁Mr	-2589
▁health	-2590
▁juntos	-2591
▁perder	-2592
▁cansado	-2593
ello	-2594
▁relo	-2595
▁juego	-2596
▁zapatos	-2597
▁suficiente	-2598
▁conv	-2599
▁sorprend	-2600
▁presid	-2601
▁street	-2602
▁té	-2603
▁mot	-2604
▁manz	-2605
▁Ha	-2606
▁Ayer	-2607
▁pudo	-2608
▁algún	-2609
▁black	-2610
▁creer	-2611
▁reloj	-2612
▁short	-2613
▁usar	-2614
▁vest	-2615
▁human	-2616
▁nar	-2617
▁broke	-2618
▁Estados	-2619
ps	-2620
ines	-2621
less	-2622
▁mur	-2623
▁gone	-2624
▁estos	-2625
▁vio	-2626
iving	-2627
▁sold	-2628
ball	-2629
▁sou	-2630
Sabes	-2631
▁queda	-2632
▁return	-2633
ction	-2634
▁speaks	-2635
▁equivoc	-2636
gur	-2637
▁expl	-2638
▁escap	-2639
▁radio	-2640
▁Unidos	-2641
▁sig	-2642
▁Ziri	-2643
etimes	-2644
▁cuatro	-2645
▁explain	-2646
▁tonight	-2647
▁viol	-2648
▁compañ	-2649
▁verano	-2650
▁shouldn	-2651
áb	-2652
iet	-2653
▁Sab	-2654
▁Sin	-2655
aña	-2656
Al	-2657
▁conta	-2658
▁televisión	-2659
inta	-2660
▁Ven	-2661
ieren	-2662
▁bajo	-2663
▁drive	-2664
▁office	-2665
▁bicicleta	-2666
ierta	-2667
▁absol	-2668
▁hablando	-2669
inas	-2670
▁mío	-2671
▁llama	-2672
▁intelig	-2673
▁ocupado	-2674
▁bon	-2675
▁kiss	-2676
ged	-2677
tle	-2678
▁birth	-2679
▁final	-2680
▁manos	-2681
▁examen	-2682
▁hubiera	-2683
▁Af	-2684
▁posible	-2685
▁different	-2686
cur	-2687
ient	-2688
ined	-2689
ención	-2690
▁strong	-2691
▁ventana	-2692
▁entender	-2693
Está	-2694
▁reason	-2695
ont	-2696
room	-2697
▁choc	-2698
▁encu	-2699
▁autob	-2700
▁begin	-2701
▁loves	-2702
▁cuarto	-2703
▁amb	-2704
▁box	-2705
▁enjo	-2706
▁pidió	-2707
▁summer	-2708
ures	-2709
▁ass	-2710
▁ropa	-2711
▁sell	-2712
▁invit	-2713
▁finished	-2714
▁realidad	-2715
amor	-2716
rote	-2717
▁viejo	-2718
▁compró	-2719
▁secret	-2720
▁turned	-2721
▁foto	-2722
▁pint	-2723
▁poner	-2724
▁inform	-2725
▁travel	-2726
▁town	-2727
▁paint	-2728
▁médico	-2729
ats	-2730
▁van	-2731
ences	-2732
▁leav	-2733
▁Algun	-2734
▁dolor	-2735
▁simple	-2736
▁tienda	-2737
▁Ken	-2738
adora	-2739
press	-2740
▁Lond	-2741
▁prest	-2742
▁longer	-2743
▁stupid	-2744
▁esperar	-2745
eter	-2746
▁Puedes	-2747
▁guerra	-2748
▁popular	-2749
▁deberías	-2750
ks	-2751
▁Pe	-2752
▁río	-2753
▁doll	-2754
▁sino	-2755
▁corazón	-2756
▁dead	-2757
▁lleva	-2758
▁become	-2759
▁killed	-2760
▁Many	-2761
▁pier	-2762
▁Has	-2763
▁luz	-2764
ener	-2765
▁cond	-2766
▁quit	-2767
▁desper	-2768
olver	-2769
ouble	-2770
▁quite	-2771
ison	-2772
usto	-2773
▁lav	-2774
▁Puede	-2775
▁mujeres	-2776
▁ninguna	-2777
ull	-2778
▁cha	-2779
▁hue	-2780
▁works	-2781
▁contro	-2782
antas	-2783
▁Nosotros	-2784
▁estudiantes	-2785
▁swe	-2786
▁atra	-2787
▁seis	-2788
▁river	-2789
entemente	-2790
▁Pod	-2791
▁blo	-2792
▁norm	-2793
oke	-2794
fast	-2795
▁bur	-2796
iling	-2797
ycle	-2798
▁baby	-2799
▁sang	-2800
▁perdido	-2801
▁buscando	-2802
!"	-2803
▁je	-2804
inos	-2805
▁hija	-2806
▁recib	-2807
ensa	-2808
▁hal	-2809
▁whe	-2810
▁Aquí	-2811
▁electr	-2812
▁ign	-2813
▁cloth	-2814
▁sabes	-2815
▁enamor	-2816
▁weather	-2817
tem	-2818
▁bal	-2819
▁ido	-2820
ánd	-2821
ants	-2822
where	-2823
▁sola	-2824
▁secre	-2825
▁mistake	-2826
▁test	-2827
▁accept	-2828
▁loc	-2829
▁dark	-2830
▁algunos	-2831
▁Ad	-2832
▁dra	-2833
▁fing	-2834
▁Get	-2835
▁lie	-2836
ility	-2837
▁llegó	-2838
▁quick	-2839
▁Gracias	-2840
▁pequeño	-2841
▁interesting	-2842
▁i	-2843
ton	-2844
uelo	-2845
arnos	-2846
▁began	-2847
▁making	-2848
▁natural	-2849
▁oficina	-2850
▁possible	-2851
▁Sólo	-2852
ted	-2853
ican	-2854
▁oír	-2855
▁libre	-2856
▁vista	-2857
▁autobús	-2858
▁diccion	-2859
▁respuesta	-2860
eros	-2861
uele	-2862
used	-2863
▁age	-2864
▁tea	-2865
ifica	-2866
▁cuer	-2867
▁calor	-2868
▁lived	-2869
ya	-2870
ming	-2871
▁cambiar	-2872
▁diction	-2873
▁trust	-2874
Cuántos	-2875
▁picture	-2876
▁studying	-2877
▁cut	-2878
▁div	-2879
▁satis	-2880
▁breakfast	-2881
▁Ll	-2882
años	-2883
▁Mis	-2884
▁mill	-2885
▁large	-2886
▁afterno	-2887
▁medic	-2888
▁whole	-2889
▁saying	-2890
▁Tra	-2891
▁colle	-2892
▁media	-2893
▁company	-2894
can	-2895
its	-2896
▁mag	-2897
▁afternoon	-2898
umbr	-2899
▁Now	-2900
▁flores	-2901
trás	-2902
▁caja	-2903
▁igual	-2904
yed	-2905
onés	-2906
side	-2907
▁dest	-2908
▁hice	-2909
▁progr	-2910
▁student	-2911
ona	-2912
▁Esc	-2913
▁gas	-2914
ensive	-2915
▁point	-2916
▁For	-2917
▁adm	-2918
▁lejos	-2919
▁chocol	-2920
▁cierto	-2921
gos	-2922
hip	-2923
ella	-2924
istas	-2925
▁cult	-2926
▁chico	-2927
▁close	-2928
▁divert	-2929
▁esperando	-2930
unk	-2931
itten	-2932
▁touch	-2933
▁became	-2934
amá	-2935
▁egg	-2936
▁aver	-2937
▁equip	-2938
gn	-2939
icio	-2940
ists	-2941
▁veo	-2942
▁form	-2943
▁niña	-2944
▁poor	-2945
▁coleg	-2946
▁funcion	-2947
▁hund	-2948
▁taxi	-2949
itas	-2950
▁arro	-2951
selves	-2952
▁wrote	-2953
▁pensar	-2954
▁record	-2955
▁Stop	-2956
qué	-2957
▁pueda	-2958
▁pájar	-2959
▁anoche	-2960
▁taking	-2961
▁Christmas	-2962
graf	-2963
▁Como	-2964
▁publ	-2965
▁explic	-2966
▁clear	-2967
▁ideas	-2968
▁older	-2969
adamente	-2970
▁respons	-2971
▁hid	-2972
▁tradu	-2973
▁japonés	-2974
▁reunión	-2975
▁obs	-2976
▁nerv	-2977
▁frase	-2978
▁conven	-2979
▁clothes	-2980
▁sup	-2981
▁Just	-2982
▁writ	-2983
jado	-2984
▁later	-2985
▁animal	-2986
▁homework	-2987
ade	-2988
jal	-2989
alle	-2990
▁haya	-2991
▁ocur	-2992
▁paci	-2993
▁pain	-2994
▁serv	-2995
▁tocar	-2996
▁canción	-2997
▁animales	-2998
▁fumar	-2999
▁diccionario	-3000
▁cen	-3001
▁neigh	-3002
▁hambre	-3003
ower	-3004
pear	-3005
▁post	-3006
▁rece	-3007
▁piens	-3008
▁dictionary	-3009
▁lí	-3010
▁desay	-3011
▁flowers	-3012
▁learning	-3013
nis	-3014
umb	-3015
▁tot	-3016
▁unas	-3017
▁spent	-3018
▁cumple	-3019
▁perros	-3020
▁thinking	-3021
▁Perd	-3022
▁morir	-3023
▁aj	-3024
tera	-3025
▁bat	-3026
▁key	-3027
ientes	-3028
▁along	-3029
▁moment	-3030
rees	-3031
▁Jack	-3032
▁Look	-3033
▁rico	-3034
▁correc	-3035
▁consegu	-3036
▁interesante	-3037
úp	-3038
▁fre	-3039
▁least	-3040
▁neighb	-3041
▁America	-3042
▁terrible	-3043
▁watching	-3044
ism	-3045
omb	-3046
▁pur	-3047
▁alem	-3048
isiera	-3049
▁store	-3050
▁escrit	-3051
▁wearing	-3052
band	-3053
▁jard	-3054
▁largo	-3055
▁estuvo	-3056
▁trouble	-3057
▁preguntó	-3058
▁pun	-3059
▁acostumbr	-3060
▁chocolate	-3061
▁extranjero	-3062
Le	-3063
▁ty	-3064
itos	-3065
leas	-3066
▁duro	-3067
▁constru	-3068
ismo	-3069
ters	-3070
▁flu	-3071
ities	-3072
▁fore	-3073
▁avión	-3074
▁viaje	-3075
amás	-3076
gull	-3077
▁descu	-3078
▁quedó	-3079
▁behind	-3080
▁compar	-3081
ets	-3082
▁dó	-3083
ount	-3084
▁cir	-3085
▁bebé	-3086
▁lluv	-3087
▁bring	-3088
▁carne	-3089
▁finish	-3090
▁hungry	-3091
ief	-3092
kes	-3093
onoc	-3094
ended	-3095
▁bath	-3096
▁lose	-3097
▁pick	-3098
▁direc	-3099
▁mater	-3100
▁sever	-3101
▁somos	-3102
jalá	-3103
▁Vamos	-3104
▁pedir	-3105
▁yours	-3106
▁doming	-3107
▁enfermo	-3108
▁entonces	-3109
ny	-3110
Que	-3111
▁stopped	-3112
▁necesito	-3113
▁Ke	-3114
iete	-3115
▁Era	-3116
▁tuv	-3117
▁esté	-3118
ention	-3119
▁dólar	-3120
▁polít	-3121
▁hermos	-3122
▁regalo	-3123
das	-3124
áis	-3125
anda	-3126
icia	-3127
▁ill	-3128
▁oído	-3129
▁Today	-3130
▁ganas	-3131
▁caught	-3132
▁chance	-3133
▁nor	-3134
▁rev	-3135
▁nieve	-3136
▁segun	-3137
▁cake	-3138
▁perm	-3139
▁algunas	-3140
▁animals	-3141
▁colegio	-3142
▁expensive	-3143
eme	-3144
enty	-3145
▁Dis	-3146
umbre	-3147
▁cien	-3148
▁gard	-3149
itting	-3150
▁enfad	-3151
▁women	-3152
ountain	-3153
▁People	-3154
▁idiomas	-3155
▁sentido	-3156
▁rid	-3157
▁sad	-3158
▁eran	-3159
▁foot	-3160
▁hasn	-3161
▁acept	-3162
▁estre	-3163
▁pue	-3164
unque	-3165
▁wine	-3166
ientos	-3167
usband	-3168
▁worry	-3169
▁suerte	-3170
bed	-3171
▁Ap	-3172
▁Déj	-3173
▁estuv	-3174
▁verte	-3175
▁tennis	-3176
▁York	-3177
▁inst	-3178
▁crees	-3179
▁guard	-3180
▁novia	-3181
eph	-3182
gué	-3183
▁cree	-3184
▁cielo	-3185
▁encant	-3186
ony	-3187
▁Os	-3188
cios	-3189
▁Int	-3190
▁Cada	-3191
▁sería	-3192
▁concer	-3193
▁serious	-3194
bert	-3195
chos	-3196
▁mess	-3197
▁susp	-3198
▁After	-3199
▁capaz	-3200
▁vamos	-3201
▁during	-3202
uras	-3203
▁agu	-3204
▁Jane	-3205
▁luck	-3206
▁malo	-3207
▁husband	-3208
▁preguntas	-3209
▁But	-3210
▁ice	-3211
▁Hace	-3212
▁poem	-3213
▁Canad	-3214
▁entrar	-3215
▁birthday	-3216
uda	-3217
▁Sal	-3218
▁ded	-3219
▁girlfriend	-3220
cy	-3221
oro	-3222
▁conci	-3223
▁earth	-3224
▁estas	-3225
▁cocina	-3226
▁orgull	-3227
▁parque	-3228
▁rather	-3229
▁pregunto	-3230
▁dangerous	-3231
blo	-3232
iza	-3233
▁blue	-3234
▁caso	-3235
▁idio	-3236
▁soci	-3237
▁vacaciones	-3238
cto	-3239
ken	-3240
▁hu	-3241
▁New	-3242
▁Sun	-3243
▁hol	-3244
▁craz	-3245
▁glad	-3246
▁takes	-3247
út	-3248
amed	-3249
▁tenido	-3250
▁cumpleaños	-3251
▁fly	-3252
▁rom	-3253
▁Ital	-3254
▁half	-3255
▁romp	-3256
▁team	-3257
▁Había	-3258
▁depend	-3259
▁questions	-3260
yó	-3261
jet	-3262
▁Puedo	-3263
▁pagar	-3264
▁Alguien	-3265
▁conozco	-3266
▁perfect	-3267
▁ej	-3268
izar	-3269
uego	-3270
▁fas	-3271
▁oportun	-3272
▁outside	-3273
▁estudiante	-3274
útbol	-3275
▁allá	-3276
▁haga	-3277
▁requ	-3278
▁gatos	-3279
▁infor	-3280
ró	-3281
ably	-3282
▁sel	-3283
ances	-3284
▁econ	-3285
▁heav	-3286
▁pract	-3287
▁tenis	-3288
▁advice	-3289
▁fútbol	-3290
▁trabaja	-3291
▁business	-3292
fico	-3293
vered	-3294
▁amar	-3295
▁Estás	-3296
▁papel	-3297
▁jardín	-3298
▁second	-3299
▁cuidado	-3300
ames	-3301
▁comput	-3302
▁garden	-3303
▁problems	-3304
▁Col	-3305
▁cay	-3306
▁iba	-3307
▁baño	-3308
▁fres	-3309
▁move	-3310
▁trip	-3311
▁permit	-3312
▁dólares	-3313
▁building	-3314
iven	-3315
▁pers	-3316
▁Compr	-3317
▁crazy	-3318
▁famos	-3319
▁mostr	-3320
▁salió	-3321
▁alemán	-3322
▁famous	-3323
▁seguir	-3324
▁changed	-3325
▁foreign	-3326
▁conducir	-3327
ror	-3328
▁éx	-3329
▁cou	-3330
ement	-3331
▁fight	-3332
▁listo	-3333
▁entend	-3334
▁perdió	-3335
▁nuestros	-3336
oub	-3337
▁hit	-3338
▁aleg	-3339
▁slow	-3340
avidad	-3341
▁beber	-3342
▁catch	-3343
▁monta	-3344
▁señor	-3345
▁thinks	-3346
▁careful	-3347
apa	-3348
▁Br	-3349
▁der	-3350
▁fui	-3351
▁Debes	-3352
▁ignor	-3353
▁mayoría	-3354
ribe	-3355
▁orig	-3356
▁admit	-3357
▁estúp	-3358
cum	-3359
zas	-3360
otos	-3361
ueva	-3362
▁mer	-3363
▁kept	-3364
▁pude	-3365
▁suced	-3366
▁bicycle	-3367
▁siquiera	-3368
ules	-3369
▁cru	-3370
▁fac	-3371
▁meat	-3372
▁éxito	-3373
▁mountain	-3374
▁surprised	-3375
orr	-3376
▁Em	-3377
▁opp	-3378
▁relig	-3379
▁smell	-3380
▁invest	-3381
igar	-3382
▁cám	-3383
▁equipo	-3384
▁Nuestro	-3385
▁opinión	-3386
▁oportunidad	-3387
ene	-3388
ivos	-3389
orio	-3390
▁grow	-3391
▁side	-3392
▁incre	-3393
▁Mañana	-3394
▁sentences	-3395
op	-3396
▁á	-3397
ecer	-3398
orts	-3399
outh	-3400
▁Not	-3401
▁dire	-3402
▁gets	-3403
▁emple	-3404
▁llave	-3405
▁loved	-3406
▁quieren	-3407
Wh	-3408
ils	-3409
eras	-3410
iles	-3411
▁mid	-3412
jiste	-3413
ution	-3414
▁cour	-3415
▁road	-3416
▁tick	-3417
▁deser	-3418
▁polit	-3419
ablemente	-3420
ím	-3421
Tom	-3422
▁smo	-3423
▁known	-3424
▁ruido	-3425
▁hundred	-3426
▁primero	-3427
ioso	-3428
▁Lay	-3429
▁det	-3430
inese	-3431
▁bank	-3432
▁Ojalá	-3433
▁culpa	-3434
▁lista	-3435
▁sombr	-3436
▁inmedi	-3437
▁lluvia	-3438
rop	-3439
onder	-3440
▁allow	-3441
▁regres	-3442
▁quickly	-3443
▁speaking	-3444
ative	-3445
▁disap	-3446
▁pueblo	-3447
▁terminar	-3448
of	-3449
▁Spa	-3450
▁vec	-3451
▁errores	-3452
▁grandes	-3453
▁vestido	-3454
▁written	-3455
▁Bu	-3456
eren	-3457
▁cla	-3458
▁anci	-3459
▁dogs	-3460
▁blanco	-3461
Eres	-3462
allo	-3463
teca	-3464
▁alred	-3465
▁means	-3466
▁Europe	-3467
▁dentro	-3468
▁peligr	-3469
bs	-3470
gó	-3471
▁cop	-3472
▁cast	-3473
▁siete	-3474
▁interested	-3475
ades	-3476
anza	-3477
▁fuego	-3478
▁empezó	-3479
▁temper	-3480
▁triste	-3481
▁Chinese	-3482
fa	-3483
irs	-3484
▁hat	-3485
▁parecía	-3486
▁bag	-3487
▁tomó	-3488
▁Layla	-3489
▁medio	-3490
▁proud	-3491
▁played	-3492
vern	-3493
▁Car	-3494
▁exact	-3495
▁llamar	-3496
▁strange	-3497
cked	-3498
inal	-3499
▁bibl	-3500
▁doub	-3501
▁priv	-3502
▁wall	-3503
▁helped	-3504
▁public	-3505
▁visitar	-3506
book	-3507
irse	-3508
▁eno	-3509
▁sud	-3510
uerzo	-3511
▁With	-3512
▁demás	-3513
▁front	-3514
▁último	-3515
▁smoking	-3516
enci	-3517
▁ado	-3518
ature	-3519
▁case	-3520
▁cerve	-3521
▁vuelta	-3522
▁pequeña	-3523
▁atención	-3524
dos	-3525
ila	-3526
oria	-3527
▁Ent	-3528
▁tir	-3529
▁vaya	-3530
▁Maybe	-3531
▁cuanto	-3532
▁llevar	-3533
▁Después	-3534
▁entiendo	-3535
ola	-3536
ienen	-3537
▁mala	-3538
▁Somos	-3539
▁Everything	-3540
Ya	-3541
uit	-3542
cido	-3543
▁Pas	-3544
▁drunk	-3545
▁llorar	-3546
aper	-3547
tico	-3548
▁agree	-3549
▁floor	-3550
▁meses	-3551
▁control	-3552
ped	-3553
▁Di	-3554
pping	-3555
ución	-3556
▁cuch	-3557
▁piensa	-3558
▁extraño	-3559
▁success	-3560
có	-3561
rew	-3562
▁Vi	-3563
▁Deja	-3564
▁nego	-3565
▁vivo	-3566
▁eaten	-3567
▁biblio	-3568
▁escond	-3569
ala	-3570
vas	-3571
úbl	-3572
rito	-3573
▁Put	-3574
▁fat	-3575
▁ora	-3576
▁tío	-3577
▁Keep	-3578
▁abro	-3579
▁hemos	-3580
▁tarea	-3581
▁worth	-3582
▁puesto	-3583
▁quieras	-3584
▁whether	-3585
▁alrededor	-3586
Ten	-3587
cted	-3588
▁fla	-3589
▁piz	-3590
▁mont	-3591
▁Spain	-3592
osotras	-3593
▁cámara	-3594
▁volvió	-3595
▁brought	-3596
▁pregunt	-3597
▁má	-3598
▁sos	-3599
pacio	-3600
▁offer	-3601
▁pleas	-3602
▁cantar	-3603
▁conoce	-3604
▁Navidad	-3605
▁certain	-3606
rás	-3607
come	-3608
enes	-3609
icial	-3610
▁aire	-3611
▁pena	-3612
▁paper	-3613
▁única	-3614
▁España	-3615
▁mistakes	-3616
way	-3617
ificio	-3618
▁capac	-3619
▁necess	-3620
▁glasses	-3621
▁logr	-3622
▁muse	-3623
▁muerto	-3624
▁needed	-3625
▁secreto	-3626
▁cena	-3627
▁Ale	-3628
▁fra	-3629
▁Pien	-3630
Cuántas	-3631
▁mentir	-3632
▁months	-3633
",	-3634
llo	-3635
▁Ni	-3636
▁ur	-3637
▁Rec	-3638
▁Those	-3639
▁Tokyo	-3640
▁bread	-3641
▁United	-3642
▁asleep	-3643
▁complet	-3644
▁dollars	-3645
▁respond	-3646
▁significa	-3647
▁restaurant	-3648
ques	-3649
▁voz	-3650
▁beer	-3651
▁eggs	-3652
▁ladr	-3653
▁extre	-3654
▁organ	-3655
▁reach	-3656
▁huevos	-3657
▁consejo	-3658
▁Sm	-3659
▁ut	-3660
bajo	-3661
ress	-3662
▁gif	-3663
▁pot	-3664
▁hagas	-3665
▁herself	-3666
▁several	-3667
▁writing	-3668
mon	-3669
▁Try	-3670
▁cos	-3671
▁fur	-3672
mento	-3673
▁fine	-3674
▁llover	-3675
▁cerveza	-3676
▁library	-3677
ured	-3678
▁sky	-3679
arios	-3680
▁ball	-3681
▁loco	-3682
▁blood	-3683
▁seven	-3684
▁camera	-3685
▁restaurante	-3686
hib	-3687
▁exac	-3688
▁belie	-3689
▁pobre	-3690
▁Sunday	-3691
▁honest	-3692
▁gracias	-3693
▁compañía	-3694
▁Esperanto	-3695
emát	-3696
fiero	-3697
▁Tokio	-3698
▁banco	-3699
▁delici	-3700
▁hiciste	-3701
▁Everybody	-3702
▁(	-3703
▁apag	-3704
▁tras	-3705
osible	-3706
▁beach	-3707
▁France	-3708
▁treinta	-3709
▁biblioteca	-3710
▁completamente	-3711
dle	-3712
eca	-3713
ugu	-3714
cent	-3715
▁gar	-3716
▁Russ	-3717
▁debes	-3718
▁thirty	-3719
▁convers	-3720
ula	-3721
▁Ber	-3722
▁cup	-3723
▁esf	-3724
▁fear	-3725
▁seas	-3726
▁sonr	-3727
▁noise	-3728
ela	-3729
teen	-3730
jeron	-3731
presa	-3732
▁future	-3733
▁drinking	-3734
▁escuchar	-3735
▁completely	-3736
bra	-3737
▁Pa	-3738
▁ris	-3739
▁tur	-3740
▁maest	-3741
▁normal	-3742
▁Francia	-3743
▁descubr	-3744
▁opinion	-3745
▁próximo	-3746
▁inteligente	-3747
rez	-3748
▁Pol	-3749
▁emo	-3750
cción	-3751
▁cayó	-3752
▁clim	-3753
▁guys	-3754
▁kids	-3755
▁scared	-3756
▁talked	-3757
coh	-3758
ented	-3759
ustom	-3760
▁Even	-3761
▁ases	-3762
▁suit	-3763
▁const	-3764
▁girls	-3765
▁liked	-3766
▁arrest	-3767
▁crying	-3768
▁Someone	-3769
▁ajed	-3770
▁ganar	-3771
▁playa	-3772
▁sitio	-3773
▁smoke	-3774
▁cuándo	-3775
▁matemát	-3776
▁edificio	-3777
▁attention	-3778
El	-3779
anqu	-3780
▁Ser	-3781
▁sci	-3782
clock	-3783
▁fact	-3784
▁aburr	-3785
▁stayed	-3786
▁derecho	-3787
▁leyendo	-3788
Lo	-3789
pes	-3790
▁fix	-3791
▁jud	-3792
▁Gree	-3793
▁alta	-3794
▁crim	-3795
▁ello	-3796
▁mach	-3797
amento	-3798
imientos	-3799
▁personal	-3800
▁Cas	-3801
▁Fui	-3802
▁Haz	-3803
▁sex	-3804
▁abog	-3805
▁boca	-3806
▁cats	-3807
▁eleg	-3808
▁escal	-3809
▁moder	-3810
▁negro	-3811
▁thank	-3812
▁feeling	-3813
▁learned	-3814
Se	-3815
▁Od	-3816
▁sy	-3817
▁Bill	-3818
▁deep	-3819
▁peor	-3820
▁send	-3821
▁situación	-3822
▁sometimes	-3823
icidad	-3824
ational	-3825
ós	-3826
▁Sí	-3827
ched	-3828
▁Dan	-3829
▁apple	-3830
▁embar	-3831
amiento	-3832
▁Tierra	-3833
▁seemed	-3834
▁correct	-3835
▁japones	-3836
▁encontró	-3837
▁Sol	-3838
▁sav	-3839
icion	-3840
▁durm	-3841
▁paid	-3842
▁separ	-3843
▁partido	-3844
▁American	-3845
aken	-3846
iano	-3847
ingu	-3848
rown	-3849
▁Sup	-3850
▁club	-3851
▁ship	-3852
▁Estos	-3853
▁mensa	-3854
▁uncle	-3855
▁probably	-3856
▁Co	-3857
ries	-3858
ully	-3859
▁atta	-3860
▁alive	-3861
▁comun	-3862
▁segur	-3863
▁States	-3864
▁consci	-3865
▁cuesta	-3866
eció	-3867
▁bos	-3868
▁inde	-3869
puesto	-3870
▁cross	-3871
▁abroad	-3872
▁complain	-3873
▁conseguir	-3874
▁trabajando	-3875
reci	-3876
▁paz	-3877
illos	-3878
▁sale	-3879
▁star	-3880
▁caballo	-3881
▁encuent	-3882
íg	-3883
▁Tw	-3884
alla	-3885
▁obl	-3886
iment	-3887
▁agre	-3888
▁base	-3889
▁carro	-3890
▁sense	-3891
▁asunto	-3892
▁clases	-3893
▁running	-3894
▁sleeping	-3895
iód	-3896
▁Dec	-3897
itted	-3898
▁bird	-3899
cional	-3900
▁abrir	-3901
▁closed	-3902
▁futuro	-3903
▁govern	-3904
▁periód	-3905
▁weight	-3906
▁respect	-3907
▁sombrero	-3908
jes	-3909
ille	-3910
▁cine	-3911
▁digas	-3912
▁broken	-3913
abo	-3914
idge	-3915
▁Life	-3916
▁cere	-3917
▁golf	-3918
▁newsp	-3919
▁habría	-3920
▁inside	-3921
▁Necesit	-3922
▁Nothing	-3923
▁necesitas	-3924
▁rum	-3925
▁king	-3926
mación	-3927
▁Quisiera	-3928
bb	-3929
imas	-3930
zado	-3931
▁Aún	-3932
▁Jim	-3933
▁rey	-3934
▁fort	-3935
▁amiga	-3936
▁barco	-3937
▁energ	-3938
▁liter	-3939
▁pizza	-3940
▁shirt	-3941
▁arregl	-3942
▁jugando	-3943
▁peligro	-3944
▁favorito	-3945
olv	-3946
ume	-3947
rodu	-3948
▁ama	-3949
▁Here	-3950
▁públ	-3951
ousand	-3952
▁Están	-3953
▁chess	-3954
▁duele	-3955
▁horse	-3956
▁justo	-3957
▁regal	-3958
▁solía	-3959
▁anybody	-3960
▁guitarra	-3961
dom	-3962
une	-3963
▁disco	-3964
▁saben	-3965
▁serio	-3966
▁shall	-3967
▁frente	-3968
▁terminado	-3969
ah	-3970
▁Sk	-3971
▁És	-3972
rove	-3973
▁Ind	-3974
▁hug	-3975
Crees	-3976
▁Pero	-3977
▁cele	-3978
▁disp	-3979
▁rojo	-3980
▁term	-3981
▁Ellas	-3982
▁alcan	-3983
▁voice	-3984
▁worked	-3985
▁exactly	-3986
▁imposible	-3987
él	-3988
uve	-3989
atura	-3990
▁azul	-3991
▁yell	-3992
▁kitch	-3993
▁apolog	-3994
▁econom	-3995
▁passed	-3996
▁dijiste	-3997
▁raining	-3998
▁invierno	-3999
▁universidad	-4000
ran	-4001
▁Ro	-4002
arle	-4003
onse	-4004
▁rat	-4005
▁green	-4006
▁power	-4007
▁quiet	-4008
▁Muchos	-4009
▁propia	-4010
▁siendo	-4011
▁ajedrez	-4012
▁kitchen	-4013
▁manzana	-4014
▁ef	-4015
▁sir	-4016
entas	-4017
▁body	-4018
▁hold	-4019
▁mamá	-4020
▁alcoh	-4021
▁cigar	-4022
▁situation	-4023
ude	-4024
▁Enc	-4025
▁dul	-4026
▁band	-4027
▁burn	-4028
▁mand	-4029
▁docum	-4030
▁enjoy	-4031
▁viven	-4032
▁vuest	-4033
▁satisf	-4034
ceed	-4035
ians	-4036
ellig	-4037
fully	-4038
▁Casi	-4039
▁argu	-4040
▁prov	-4041
▁rema	-4042
▁sens	-4043
▁vill	-4044
▁hacen	-4045
▁camisa	-4046
▁swimming	-4047
▁esperanto	-4048
,"	-4049
óg	-4050
Hab	-4051
adu	-4052
eng	-4053
▁ata	-4054
▁fig	-4055
▁lat	-4056
eless	-4057
▁land	-4058
▁rules	-4059
ination	-4060
▁descans	-4061
▁dientes	-4062
▁encontré	-4063
▁impossible	-4064
etas	-4065
▁vos	-4066
▁Good	-4067
▁pied	-4068
▁shar	-4069
father	-4070
▁comió	-4071
▁arrive	-4072
▁walked	-4073
oco	-4074
ince	-4075
▁Fin	-4076
▁Que	-4077
bamos	-4078
▁mere	-4079
▁vide	-4080
▁Paris	-4081
▁fruit	-4082
▁haces	-4083
▁spoke	-4084
▁antigu	-4085
▁pensando	-4086
▁equivocado	-4087
▁eye	-4088
▁top	-4089
▁cenar	-4090
▁dance	-4091
▁engañ	-4092
▁oblig	-4093
▁umbre	-4094
icación	-4095
▁prison	-4096
▁presidente	-4097
bu	-4098
▁pic	-4099
occer	-4100
▁camp	-4101
▁sand	-4102
▁haría	-4103
▁llamó	-4104
▁novio	-4105
▁frases	-4106
▁opened	-4107
▁viajar	-4108
▁sitting	-4109
ike	-4110
lam	-4111
▁fif	-4112
▁cuad	-4113
▁wind	-4114
▁campo	-4115
▁común	-4116
▁habit	-4117
▁plays	-4118
▁abuelo	-4119
▁belong	-4120
▁either	-4121
▁intern	-4122
▁general	-4123
▁hermosa	-4124
▁comiendo	-4125
▁clos	-4126
▁París	-4127
▁apart	-4128
▁eight	-4129
▁mouth	-4130
▁taken	-4131
▁Thanks	-4132
▁estudiando	-4133
▁sle	-4134
quina	-4135
▁chur	-4136
▁dent	-4137
▁hurry	-4138
▁cuánto	-4139
▁movies	-4140
▁sangre	-4141
▁traduc	-4142
▁finally	-4143
▁OK	-4144
orre	-4145
ross	-4146
▁mel	-4147
▁mía	-4148
▁dish	-4149
▁fool	-4150
▁port	-4151
▁lleno	-4152
▁abuela	-4153
▁montón	-4154
▁rompió	-4155
▁though	-4156
▁Algunos	-4157
▁enfermed	-4158
▁dirección	-4159
▁Ne	-4160
▁Gre	-4161
icias	-4162
▁mult	-4163
▁suel	-4164
▁Alger	-4165
▁otras	-4166
▁peace	-4167
▁decisión	-4168
▁vosotros	-4169
▁boyfriend	-4170
mat	-4171
▁ann	-4172
▁dan	-4173
▁Quiz	-4174
▁deal	-4175
▁educ	-4176
▁film	-4177
▁jamás	-4178
▁suelo	-4179
▁empezar	-4180
▁medicine	-4181
ech	-4182
eda	-4183
▁Oh	-4184
ffic	-4185
▁pant	-4186
▁estad	-4187
▁pared	-4188
▁weren	-4189
▁quedar	-4190
▁twenty	-4191
▁winter	-4192
▁singing	-4193
▁escribió	-4194
▁información	-4195
viv	-4196
guna	-4197
llas	-4198
remos	-4199
érica	-4200
▁prev	-4201
▁salv	-4202
▁sigue	-4203
Podrías	-4204
▁bailar	-4205
▁discul	-4206
▁discut	-4207
▁paraguas	-4208
▁peligroso	-4209
iod	-4210
ler	-4211
ired	-4212
▁Tan	-4213
▁den	-4214
adien	-4215
table	-4216
▁ocho	-4217
elcome	-4218
▁doubt	-4219
▁golpe	-4220
▁guess	-4221
▁invol	-4222
▁common	-4223
▁escrito	-4224
▁canadien	-4225
▁resolver	-4226
▁boss	-4227
▁camin	-4228
▁dejes	-4229
▁worse	-4230
▁teleph	-4231
▁abogado	-4232
▁evening	-4233
▁thousand	-4234
uera	-4235
▁Uno	-4236
▁gor	-4237
▁inj	-4238
▁check	-4239
▁objet	-4240
▁Intern	-4241
▁choice	-4242
▁dispar	-4243
▁pasada	-4244
idamente	-4245
▁dri	-4246
▁stra	-4247
▁pesar	-4248
▁Pienso	-4249
▁marido	-4250
▁promet	-4251
▁showed	-4252
▁Ustedes	-4253
▁leaving	-4254
▁umbrella	-4255
▁Pl	-4256
ding	-4257
inda	-4258
▁cel	-4259
▁vin	-4260
▁Braz	-4261
▁lead	-4262
▁comido	-4263
▁information	-4264
els	-4265
ety	-4266
▁Ve	-4267
▁due	-4268
▁guy	-4269
▁tro	-4270
▁Odio	-4271
▁Port	-4272
▁mira	-4273
▁Brazil	-4274
▁course	-4275
▁recuer	-4276
▁necesario	-4277
bos	-4278
irá	-4279
rim	-4280
▁Sw	-4281
▁inn	-4282
Tiene	-4283
ables	-4284
ected	-4285
▁Dame	-4286
▁duer	-4287
▁trav	-4288
▁fault	-4289
▁Déjame	-4290
▁Europa	-4291
▁caliente	-4292
▁investig	-4293
▁exactamente	-4294
iro	-4295
arth	-4296
caso	-4297
tero	-4298
unci	-4299
ience	-4300
illed	-4301
ículo	-4302
▁alar	-4303
▁Estas	-4304
▁aquel	-4305
▁cream	-4306
▁empie	-4307
▁estará	-4308
▁molest	-4309
▁seeing	-4310
▁Debería	-4311
▁estabas	-4312
▁hermanos	-4313
▁noticias	-4314
▁Tuve	-4315
▁desk	-4316
▁peso	-4317
▁acaba	-4318
▁smart	-4319
▁caminar	-4320
▁comenzó	-4321
▁experiencia	-4322
esa	-4323
ilt	-4324
ueve	-4325
▁Bob	-4326
▁abo	-4327
▁bill	-4328
▁debo	-4329
▁fotos	-4330
▁lying	-4331
▁matar	-4332
▁naran	-4333
▁buenos	-4334
▁cuerpo	-4335
▁alcohol	-4336
▁esperaba	-4337
▁encontrado	-4338
iego	-4339
▁asp	-4340
▁card	-4341
▁safe	-4342
onozco	-4343
▁Skura	-4344
▁accom	-4345
▁disfr	-4346
▁igles	-4347
▁luego	-4348
▁social	-4349
▁montaña	-4350
▁piensas	-4351
▁program	-4352
▁Prefiero	-4353
▁necessary	-4354
cos	-4355
nes	-4356
xico	-4357
▁osc	-4358
acter	-4359
▁Nada	-4360
▁Ning	-4361
▁drank	-4362
▁evitar	-4363
▁ordenador	-4364
▁difference	-4365
ned	-4366
aria	-4367
oken	-4368
▁arte	-4369
▁comb	-4370
▁salt	-4371
▁seat	-4372
Alguna	-4373
▁claro	-4374
▁revis	-4375
▁solve	-4376
▁London	-4377
▁impres	-4378
▁venido	-4379
▁intellig	-4380
ex	-4381
aka	-4382
▁taza	-4383
▁Londres	-4384
▁traffic	-4385
▁especial	-4386
▁dé	-4387
▁Pon	-4388
▁kil	-4389
▁vot	-4390
▁boys	-4391
▁vaso	-4392
▁appear	-4393
▁lawyer	-4394
▁soccer	-4395
▁ocurrió	-4396
pas	-4397
iday	-4398
inte	-4399
ises	-4400
▁acá	-4401
▁amo	-4402
inted	-4403
▁caro	-4404
▁gift	-4405
▁jefe	-4406
▁llov	-4407
▁shut	-4408
ically	-4409
▁divor	-4410
▁slowly	-4411
▁invited	-4412
▁product	-4413
▁comprado	-4414
▁listening	-4415
▁diferencia	-4416
aged	-4417
▁pet	-4418
▁hago	-4419
▁regl	-4420
▁suic	-4421
▁causa	-4422
iamente	-4423
ortable	-4424
▁church	-4425
▁sudden	-4426
▁continu	-4427
▁dormido	-4428
▁lenguas	-4429
▁visited	-4430
▁younger	-4431
▁Internet	-4432
▁abandoned	-4433
uk	-4434
key	-4435
oda	-4436
▁il	-4437
▁iz	-4438
▁Yes	-4439
▁cow	-4440
▁nac	-4441
Puede	-4442
jeros	-4443
▁flor	-4444
▁proy	-4445
▁twice	-4446
▁amable	-4447
▁cambio	-4448
▁except	-4449
▁mensaje	-4450
▁vacation	-4451
▁divertido	-4452
▁experience	-4453
▁television	-4454
eta	-4455
urs	-4456
▁Gu	-4457
▁squ	-4458
▁cole	-4459
▁prue	-4460
▁shop	-4461
idades	-4462
▁appro	-4463
▁comet	-4464
▁nació	-4465
▁Aprend	-4466
▁complic	-4467
▁convert	-4468
▁history	-4469
▁responder	-4470
gent	-4471
úcar	-4472
▁Dej	-4473
▁Sta	-4474
▁pul	-4475
usión	-4476
▁adel	-4477
▁cars	-4478
aremos	-4479
atever	-4480
▁Hemos	-4481
▁Maria	-4482
▁knife	-4483
▁buenas	-4484
▁missed	-4485
▁player	-4486
▁próxima	-4487
▁everybody	-4488
iga	-4489
▁ce	-4490
ystem	-4491
▁dese	-4492
mother	-4493
▁birds	-4494
▁contar	-4495
▁dejado	-4496
▁pienso	-4497
▁sounds	-4498
icamente	-4499
▁decidió	-4500
▁mejores	-4501
▁siguiente	-4502
ha	-4503
gue	-4504
eric	-4505
hood	-4506
▁Qué	-4507
▁lab	-4508
▁pra	-4509
▁cand	-4510
▁vict	-4511
▁carry	-4512
▁excep	-4513
▁recom	-4514
▁vayas	-4515
▁azúcar	-4516
▁celebr	-4517
▁centro	-4518
▁correr	-4519
▁leaves	-4520
▁minute	-4521
▁propio	-4522
▁reglas	-4523
▁iglesia	-4524
▁izquier	-4525
▁aero	-4526
▁ante	-4527
▁hide	-4528
▁rato	-4529
▁cumpl	-4530
▁piece	-4531
▁teeth	-4532
▁desped	-4533
▁prohib	-4534
▁llegado	-4535
▁patient	-4536
gon	-4537
iqu	-4538
nas	-4539
▁zo	-4540
edad	-4541
eron	-4542
iría	-4543
▁Les	-4544
▁Sat	-4545
uerto	-4546
▁eats	-4547
▁sala	-4548
▁defin	-4549
▁lucky	-4550
▁suffer	-4551
▁walking	-4552
▁worried	-4553
ór	-4554
Con	-4555
ury	-4556
▁Ol	-4557
icar	-4558
irme	-4559
▁opt	-4560
▁mane	-4561
▁autom	-4562
▁chair	-4563
▁hablo	-4564
▁larga	-4565
▁prima	-4566
▁trees	-4567
▁across	-4568
▁caball	-4569
▁Debemos	-4570
▁address	-4571
▁decision	-4572
▁neighbor	-4573
eld	-4574
uan	-4575
▁dam	-4576
▁ves	-4577
▁dise	-4578
▁haré	-4579
bierno	-4580
ording	-4581
▁almor	-4582
▁borra	-4583
▁marav	-4584
▁smile	-4585
▁compet	-4586
▁extrem	-4587
▁failed	-4588
▁waited	-4589
▁account	-4590
▁llevaba	-4591
▁expected	-4592
▁mantener	-4593
▁government	-4594
▁"¡	-4595
▁aus	-4596
▁eff	-4597
▁fle	-4598
emplo	-4599
manas	-4600
▁alum	-4601
▁esos	-4602
▁irse	-4603
▁Argel	-4604
▁plant	-4605
▁verde	-4606
▁video	-4607
▁conocer	-4608
▁weekend	-4609
▁signific	-4610
▁telephone	-4611
▁translate	-4612
Tú	-4613
iliz	-4614
pend	-4615
▁empt	-4616
▁infl	-4617
▁jump	-4618
▁tuve	-4619
▁wood	-4620
▁Acabo	-4621
▁blame	-4622
▁count	-4623
▁silen	-4624
▁tenga	-4625
▁bosque	-4626
▁nobody	-4627
▁regret	-4628
▁discuss	-4629
▁domingo	-4630
▁humanos	-4631
▁mirando	-4632
▁succeed	-4633
▁diciendo	-4634
▁beginning	-4635
▁grandfather	-4636
La	-4637
inado	-4638
▁Habl	-4639
▁paso	-4640
▁Earth	-4641
▁Compré	-4642
▁native	-4643
▁veinte	-4644
▁confiar	-4645
▁happens	-4646
▁Canadian	-4647
▁cuchillo	-4648
▁pictures	-4649
▁suficientemente	-4650
sh	-4651
oto	-4652
ster	-4653
▁gun	-4654
▁heavy	-4655
▁detrás	-4656
▁países	-4657
▁contest	-4658
▁pasando	-4659
▁promise	-4660
ique	-4661
ucha	-4662
void	-4663
ories	-4664
▁dado	-4665
▁tort	-4666
bertad	-4667
uencia	-4668
▁Todas	-4669
▁estés	-4670
▁single	-4671
▁tierra	-4672
ji	-4673
app	-4674
▁ja	-4675
gest	-4676
▁obv	-4677
ician	-4678
▁mint	-4679
▁vale	-4680
▁útil	-4681
▁Nueva	-4682
▁adopt	-4683
▁entró	-4684
▁sugar	-4685
▁Intent	-4686
▁aconse	-4687
▁interr	-4688
▁murder	-4689
▁vendrá	-4690
▁machine	-4691
▁telling	-4692
▁village	-4693
▁president	-4694
▁intentando	-4695
ongo	-4696
▁ens	-4697
▁glo	-4698
iende	-4699
▁lago	-4700
▁cuest	-4701
▁cancel	-4702
▁island	-4703
▁pájaro	-4704
▁concert	-4705
▁pescado	-4706
▁queremos	-4707
▁'	-4708
por	-4709
Quer	-4710
entí	-4711
ling	-4712
▁Tur	-4713
board	-4714
icios	-4715
▁gram	-4716
▁soup	-4717
▁chino	-4718
▁silla	-4719
▁comien	-4720
▁commun	-4721
▁immedi	-4722
▁Encontr	-4723
▁totalmente	-4724
ager	-4725
iger	-4726
▁save	-4727
encias	-4728
▁couple	-4729
▁viendo	-4730
▁driving	-4731
▁message	-4732
▁funciona	-4733
▁Necesitamos	-4734
arás	-4735
gado	-4736
▁Any	-4737
▁estr	-4738
▁irme	-4739
▁pase	-4740
▁ring	-4741
▁acomp	-4742
▁given	-4743
▁marry	-4744
▁insect	-4745
▁viento	-4746
atamente	-4747
▁ability	-4748
▁dijeron	-4749
▁felices	-4750
▁manzanas	-4751
▁matemáticas	-4752
▁acostumbrado	-4753
men	-4754
ots	-4755
ggest	-4756
ional	-4757
▁sopa	-4758
▁advis	-4759
▁ident	-4760
▁leído	-4761
▁llevó	-4762
▁ocurr	-4763
▁repar	-4764
▁cartas	-4765
▁novela	-4766
▁system	-4767
▁Algeria	-4768
▁público	-4769
▁suggest	-4770
▁concierto	-4771
aps	-4772
▁Dr	-4773
riba	-4774
▁Cre	-4775
▁rock	-4776
▁warm	-4777
▁Tenía	-4778
▁aerop	-4779
▁atrás	-4780
▁behav	-4781
▁funny	-4782
▁price	-4783
▁venga	-4784
▁precio	-4785
▁taller	-4786
▁Argelia	-4787
▁received	-4788
▁themselves	-4789
ulo	-4790
▁cub	-4791
mania	-4792
▁comf	-4793
▁gast	-4794
▁asust	-4795
▁siste	-4796
▁llaves	-4797
▁report	-4798
▁tranqu	-4799
▁Germany	-4800
▁baseball	-4801
Tod	-4802
col	-4803
head	-4804
ellos	-4805
▁Stay	-4806
▁fair	-4807
▁hará	-4808
▁piso	-4809
▁Since	-4810
▁brill	-4811
▁prisa	-4812
▁afuera	-4813
▁helado	-4814
▁spoken	-4815
▁ticket	-4816
▁varias	-4817
▁pudiera	-4818
▁terminó	-4819
▁Alemania	-4820
▁proyecto	-4821
▁diferente	-4822
len	-4823
enos	-4824
▁pis	-4825
▁acus	-4826
▁auth	-4827
▁frec	-4828
▁keys	-4829
▁tard	-4830
▁bille	-4831
▁Anoche	-4832
▁Aunque	-4833
▁borrow	-4834
▁perten	-4835
▁maestro	-4836
▁brothers	-4837
▁aprendiendo	-4838
▁és	-4839
anca	-4840
▁gaf	-4841
▁tec	-4842
▁tri	-4843
ology	-4844
▁grup	-4845
▁cocin	-4846
▁driver	-4847
▁airport	-4848
▁almuerzo	-4849
▁traducir	-4850
▁Sometimes	-4851
eso	-4852
tica	-4853
▁crow	-4854
▁esas	-4855
▁desap	-4856
▁gafas	-4857
▁mente	-4858
▁pájaros	-4859
▁estúpido	-4860
▁periódico	-4861
▁escritorio	-4862
Eso	-4863
aked	-4864
arro	-4865
▁lic	-4866
▁mud	-4867
isión	-4868
▁Both	-4869
▁Debo	-4870
▁Ingl	-4871
▁daño	-4872
▁draw	-4873
▁fasc	-4874
▁papá	-4875
▁torm	-4876
ología	-4877
▁blind	-4878
▁easily	-4879
▁encima	-4880
▁shower	-4881
▁speech	-4882
▁América	-4883
▁pensaba	-4884
▁project	-4885
▁promised	-4886
▁countries	-4887
▁canadiense	-4888
▁inmediatamente	-4889
gues	-4890
▁Así	-4891
▁ach	-4892
▁oro	-4893
Usted	-4894
▁simp	-4895
▁brazo	-4896
▁dicen	-4897
▁slept	-4898
▁Quería	-4899
▁yellow	-4900
▁olvides	-4901
▁contento	-4902
▁independ	-4903
▁recuerdo	-4904
▁aeropuerto	-4905
ua	-4906
zy	-4907
Esta	-4908
atas	-4909
rado	-4910
▁Wait	-4911
▁crit	-4912
▁miró	-4913
▁moon	-4914
▁ones	-4915
▁oper	-4916
▁tast	-4917
▁type	-4918
▁empty	-4919
▁motor	-4920
▁casado	-4921
▁demand	-4922
▁pencil	-4923
▁semanas	-4924
▁shopping	-4925
ortunately	-4926
▁newspaper	-4927
▁Ge	-4928
▁cog	-4929
▁cuál	-4930
▁evid	-4931
▁fail	-4932
▁forg	-4933
ampoco	-4934
▁emplo	-4935
▁gusto	-4936
▁humor	-4937
▁bother	-4938
▁chicos	-4939
▁drinks	-4940
▁famoso	-4941
▁decirle	-4942
▁special	-4943
▁nuestras	-4944
onde	-4945
rite	-4946
▁Res	-4947
pring	-4948
▁bear	-4949
▁béis	-4950
▁calm	-4951
▁coat	-4952
▁nine	-4953
▁pill	-4954
▁ingen	-4955
▁sospe	-4956
▁insult	-4957
▁perman	-4958
▁Algunas	-4959
▁béisbol	-4960
▁grandmother	-4961
usa	-4962
ende	-4963
wich	-4964
▁láp	-4965
▁capt	-4966
▁pred	-4967
▁remo	-4968
▁Never	-4969
▁arroz	-4970
▁bonita	-4971
▁espera	-4972
▁recogn	-4973
▁ayudarte	-4974
▁desayuno	-4975
now	-4976
zos	-4977
▁aum	-4978
▁soñ	-4979
▁Mira	-4980
▁lake	-4981
▁espal	-4982
▁apples	-4983
▁compré	-4984
▁invent	-4985
▁varios	-4986
▁abierta	-4987
▁repente	-4988
▁sentado	-4989
▁corriendo	-4990
▁principio	-4991
▁enfermedad	-4992
gen	-4993
vil	-4994
▁Mus	-4995
▁dad	-4996
▁line	-4997
▁líne	-4998
▁Leave	-4999
▁cruel	-5000
▁decep	-5001
▁moved	-5002
iciones	-5003
▁hablan	-5004
▁deberes	-5005
▁ocupada	-5006
▁silencio	-5007
bal	-5008
bar	-5009
Para	-5010
▁Sor	-5011
icult	-5012
utely	-5013
▁clima	-5014
▁enemy	-5015
▁fruta	-5016
▁photo	-5017
▁entire	-5018
▁expres	-5019
▁despert	-5020
▁forward	-5021
▁introdu	-5022
▁similar	-5023
▁familiar	-5024
▁libertad	-5025
ancy	-5026
istr	-5027
orge	-5028
▁Tal	-5029
▁mit	-5030
▁pág	-5031
ounid	-5032
▁Cons	-5033
▁bomb	-5034
▁cier	-5035
▁digo	-5036
▁feed	-5037
▁hier	-5038
ildren	-5039
▁avoid	-5040
▁nueve	-5041
▁storm	-5042
▁especi	-5043
▁Nuestra	-5044
▁advised	-5045
▁studied	-5046
▁diferentes	-5047
íst	-5048
▁See	-5049
izado	-5050
rasil	-5051
ático	-5052
▁bike	-5053
▁culp	-5054
▁joke	-5055
▁dirty	-5056
▁forest	-5057
▁taught	-5058
ualmente	-5059
▁disappo	-5060
▁partici	-5061
▁profess	-5062
▁actually	-5063
▁distingu	-5064
▁preguntar	-5065
▁rápidamente	-5066
ecu	-5067
sto	-5068
xto	-5069
▁mue	-5070
▁nie	-5071
▁Face	-5072
▁apoy	-5073
▁clar	-5074
▁elev	-5075
▁inoc	-5076
▁pedí	-5077
▁autor	-5078
▁depar	-5079
▁deten	-5080
▁trata	-5081
▁whose	-5082
▁abrigo	-5083
▁debajo	-5084
▁correcto	-5085
▁hicieron	-5086
▁durmiendo	-5087
▁enamorado	-5088
▁esperanza	-5089
▁immediately	-5090
▁Á	-5091
bla	-5092
▁Han	-5093
▁toc	-5094
▁bebe	-5095
▁grat	-5096
▁text	-5097
aterra	-5098
▁asist	-5099
▁gustó	-5100
▁fantas	-5101
▁segura	-5102
▁siente	-5103
▁useful	-5104
▁Russian	-5105
▁cocinar	-5106
▁árboles	-5107
▁conocido	-5108
▁paciente	-5109
▁Inglaterra	-5110
▁estadounid	-5111
uca	-5112
▁jó	-5113
ares	-5114
ceso	-5115
pose	-5116
rate	-5117
vera	-5118
ándo	-5119
▁Cam	-5120
▁ase	-5121
allet	-5122
ament	-5123
ieran	-5124
istic	-5125
venes	-5126
▁Juan	-5127
▁Most	-5128
▁cous	-5129
▁date	-5130
▁sint	-5131
▁wake	-5132
▁clock	-5133
eración	-5134
▁Italia	-5135
▁chicas	-5136
abilidad	-5137
▁jóvenes	-5138
▁respecto	-5139
▁felicidad	-5140
gs	-5141
iré	-5142
rio	-5143
▁ps	-5144
iest	-5145
omet	-5146
▁alf	-5147
▁ren	-5148
▁Vivo	-5149
▁ejer	-5150
▁luna	-5151
▁Estud	-5152
inación	-5153
▁quiera	-5154
▁desayun	-5155
▁segundo	-5156
▁Yesterday	-5157
▁orgulloso	-5158
▁necesitaba	-5159
Vas	-5160
▁spa	-5161
frica	-5162
▁Call	-5163
▁Dime	-5164
▁Mike	-5165
▁Turn	-5166
▁beat	-5167
▁fund	-5168
▁toca	-5169
▁Italy	-5170
▁amist	-5171
▁dices	-5172
▁suena	-5173
▁vieja	-5174
▁dreams	-5175
▁finger	-5176
▁fishing	-5177
▁hiciera	-5178
pen	-5179
ria	-5180
upt	-5181
What	-5182
ativ	-5183
ality	-5184
▁lack	-5185
▁among	-5186
▁sweet	-5187
▁traje	-5188
▁breath	-5189
▁England	-5190
▁gobierno	-5191
▁supposed	-5192
▁happening	-5193
rel	-5194
ses	-5195
uff	-5196
▁sed	-5197
endió	-5198
graph	-5199
▁Tony	-5200
▁casó	-5201
▁cell	-5202
▁ganó	-5203
▁grou	-5204
▁built	-5205
▁llena	-5206
tamento	-5207
▁minuto	-5208
▁pastel	-5209
▁Conozco	-5210
▁acompañ	-5211
▁cooking	-5212
▁Facebook	-5213
▁favorita	-5214
▁somebody	-5215
▁wonderful	-5216
▁deberíamos	-5217
ides	-5218
iese	-5219
▁Sos	-5220
ctive	-5221
▁held	-5222
▁muer	-5223
▁shot	-5224
▁gradu	-5225
▁march	-5226
▁sight	-5227
▁perfec	-5228
▁intentó	-5229
▁horrible	-5230
▁absolutely	-5231
igue	-5232
tame	-5233
▁tie	-5234
▁trá	-5235
earía	-5236
▁main	-5237
▁rice	-5238
▁innoc	-5239
▁press	-5240
▁sentía	-5241
▁gustaba	-5242
▁resultado	-5243
bras	-5244
▁Lat	-5245
isten	-5246
stood	-5247
▁Last	-5248
▁ital	-5249
▁pare	-5250
▁soul	-5251
▁view	-5252
Podría	-5253
▁oscur	-5254
▁buscar	-5255
▁destro	-5256
▁subject	-5257
▁izquierda	-5258
ibu	-5259
jada	-5260
orme	-5261
▁Viv	-5262
▁fem	-5263
dónde	-5264
▁diga	-5265
▁tuyo	-5266
▁activ	-5267
▁parar	-5268
▁tonto	-5269
▁weeks	-5270
▁author	-5271
▁hiding	-5272
▁platos	-5273
▁sueños	-5274
▁tengas	-5275
▁meaning	-5276
▁profund	-5277
▁quedarse	-5278
▁películas	-5279
▁primavera	-5280
▁X	-5281
icó	-5282
▁lá	-5283
igos	-5284
▁Hel	-5285
▁aud	-5286
▁raz	-5287
ments	-5288
▁gent	-5289
▁legs	-5290
▁miem	-5291
▁pies	-5292
ecause	-5293
▁contó	-5294
▁valor	-5295
▁Estaré	-5296
▁butter	-5297
▁correo	-5298
▁humano	-5299
▁letters	-5300
▁noticia	-5301
▁oración	-5302
▁tampoco	-5303
▁universe	-5304
▁universo	-5305
erc	-5306
iced	-5307
osos	-5308
▁wet	-5309
▁isla	-5310
▁Smith	-5311
▁abrió	-5312
▁aprob	-5313
▁sentó	-5314
▁waste	-5315
▁americ	-5316
▁piedra	-5317
▁stolen	-5318
▁incluso	-5319
▁nervous	-5320
▁sistema	-5321
▁agradable	-5322
gü	-5323
wa	-5324
▁Hu	-5325
eral	-5326
icen	-5327
zada	-5328
▁Dur	-5329
▁inm	-5330
▁map	-5331
▁usa	-5332
▁Love	-5333
▁carr	-5334
▁podr	-5335
▁deseo	-5336
▁habló	-5337
▁pieza	-5338
▁verlo	-5339
▁flower	-5340
▁middle	-5341
▁nuevos	-5342
asa	-5343
ney	-5344
▁Sr	-5345
▁Bus	-5346
▁actu	-5347
▁odio	-5348
▁prem	-5349
▁crowd	-5350
▁ejerc	-5351
▁instr	-5352
▁llega	-5353
▁quedé	-5354
▁space	-5355
▁consum	-5356
▁existe	-5357
▁ladrón	-5358
▁llueve	-5359
▁vuelto	-5360
▁purpose	-5361
▁sabemos	-5362
▁maravill	-5363
itó	-5364
let	-5365
pre	-5366
▁Cl	-5367
mail	-5368
▁Kate	-5369
▁Make	-5370
▁lies	-5371
▁pull	-5372
▁reír	-5373
▁absur	-5374
▁ellas	-5375
▁match	-5376
▁Brasil	-5377
▁member	-5378
▁noches	-5379
▁sports	-5380
▁ciencia	-5381
▁política	-5382
▁quedarme	-5383
▁returned	-5384
▁estuviera	-5385
▁profesora	-5386
ige	-5387
bata	-5388
jera	-5389
▁dibu	-5390
▁raro	-5391
▁sacó	-5392
▁soft	-5393
▁India	-5394
▁Traba	-5395
▁juice	-5396
▁plans	-5397
▁rains	-5398
▁aunque	-5399
▁allowed	-5400
▁college	-5401
▁covered	-5402
▁enemigo	-5403
▁express	-5404
▁material	-5405
▁Realmente	-5406
onio	-5407
onos	-5408
oses	-5409
▁Emp	-5410
▁asc	-5411
▁hamb	-5412
▁phys	-5413
▁step	-5414
▁tong	-5415
▁attra	-5416
▁bored	-5417
▁junto	-5418
▁menor	-5419
▁queso	-5420
▁tears	-5421
▁veget	-5422
▁verme	-5423
▁wound	-5424
cionado	-5425
▁partes	-5426
▁Children	-5427
▁tormenta	-5428
éc	-5429
▁Mu	-5430
▁lin	-5431
irtió	-5432
▁Only	-5433
▁redu	-5434
▁Osaka	-5435
▁hones	-5436
▁tarta	-5437
▁cheese	-5438
▁prueba	-5439
▁repres	-5440
▁entiend	-5441
▁regular	-5442
▁borracho	-5443
aga	-5444
▁Ay	-5445
▁nu	-5446
gres	-5447
king	-5448
▁fís	-5449
hemat	-5450
▁Tend	-5451
▁deja	-5452
▁gana	-5453
▁lend	-5454
▁sufr	-5455
▁ayudó	-5456
▁chick	-5457
▁juega	-5458
▁pensó	-5459
▁stole	-5460
▁apenas	-5461
▁bottle	-5462
▁observ	-5463
▁tongue	-5464
▁través	-5465
▁contact	-5466
▁enferma	-5467
▁satisfe	-5468
▁domingos	-5469
▁surprise	-5470
áct	-5471
▁Ba	-5472
arla	-5473
▁háb	-5474
▁tab	-5475
itive	-5476
▁drug	-5477
▁duda	-5478
▁pone	-5479
▁rech	-5480
▁arrep	-5481
▁democ	-5482
▁hates	-5483
▁mitad	-5484
▁refle	-5485
▁using	-5486
▁olvidó	-5487
▁puente	-5488
▁wallet	-5489
▁accompl	-5490
▁feelings	-5491
▁recordar	-5492
pó	-5493
ól	-5494
rab	-5495
elos	-5496
oría	-5497
tead	-5498
▁dud	-5499
▁sáb	-5500
ocked	-5501
▁Prob	-5502
▁repa	-5503
▁sepa	-5504
ándose	-5505
▁concl	-5506
▁worst	-5507
▁asking	-5508
▁calcul	-5509
▁kissed	-5510
▁puedas	-5511
▁podrías	-5512
rage	-5513
▁log	-5514
▁surv	-5515
▁verd	-5516
cionar	-5517
▁grupo	-5518
▁taste	-5519
▁trató	-5520
▁attend	-5521
▁hardly	-5522
▁planet	-5523
ibilidad	-5524
▁Supongo	-5525
▁decirme	-5526
▁derecha	-5527
▁impress	-5528
▁muchach	-5529
▁simplemente	-5530
fri	-5531
ges	-5532
güen	-5533
ires	-5534
resp	-5535
▁Cal	-5536
▁Exc	-5537
▁Hac	-5538
▁ble	-5539
▁dim	-5540
ledge	-5541
▁rode	-5542
▁belle	-5543
▁bolsa	-5544
▁coger	-5545
▁emerg	-5546
▁recup	-5547
▁stone	-5548
▁stood	-5549
▁Muchas	-5550
▁bridge	-5551
▁incend	-5552
▁agradec	-5553
▁botella	-5554
▁disfrut	-5555
▁bathroom	-5556
▁comporta	-5557
▁decidido	-5558
▁entiende	-5559
▁medicina	-5560
▁computador	-5561
nic	-5562
atic	-5563
▁pus	-5564
▁rub	-5565
▁wed	-5566
▁earn	-5567
▁esqu	-5568
▁firm	-5569
▁lágr	-5570
▁obra	-5571
▁warn	-5572
▁Sabía	-5573
▁local	-5574
▁boring	-5575
▁decide	-5576
▁ejemplo	-5577
▁limpiar	-5578
▁máquina	-5579
▁soldier	-5580
▁staying	-5581
▁interesa	-5582
▁somewhere	-5583
▁verdadero	-5584
▁ga	-5585
lier	-5586
▁nev	-5587
▁ojo	-5588
▁Lleg	-5589
▁cerc	-5590
▁goal	-5591
▁poet	-5592
▁sear	-5593
▁self	-5594
▁crist	-5595
▁divid	-5596
▁feels	-5597
▁venta	-5598
▁choose	-5599
▁faster	-5600
▁asiento	-5601
▁protect	-5602
▁ayudarme	-5603
▁electric	-5604
▁laughing	-5605
▁standing	-5606
▁apartment	-5607
▁capacidad	-5608
▁estrellas	-5609
▁naturaleza	-5610
▁u	-5611
ape	-5612
▁Jes	-5613
▁civ	-5614
night	-5615
ígraf	-5616
▁cita	-5617
▁quem	-5618
quilla	-5619
▁llamo	-5620
▁resto	-5621
▁cuidad	-5622
▁lastim	-5623
▁perdon	-5624
▁sentir	-5625
▁Italian	-5626
▁belleza	-5627
▁empresa	-5628
▁forever	-5629
▁llamado	-5630
▁planeta	-5631
▁support	-5632
▁delicious	-5633
▁seguridad	-5634
▁sentimientos	-5635
ié	-5636
ium	-5637
ral	-5638
xim	-5639
▁Ab	-5640
ondo	-5641
▁muñ	-5642
▁olv	-5643
▁uso	-5644
▁vel	-5645
atoes	-5646
▁Dile	-5647
▁bols	-5648
▁lent	-5649
▁mató	-5650
▁modo	-5651
▁odia	-5652
miento	-5653
▁Sorry	-5654
▁artif	-5655
▁carre	-5656
▁hacía	-5657
▁hielo	-5658
▁ocult	-5659
▁demasi	-5660
▁estáis	-5661
▁planes	-5662
▁profun	-5663
▁resfri	-5664
▁million	-5665
▁reconoc	-5666
▁sisters	-5667
▁perfecto	-5668
▁satisfied	-5669
fo	-5670
▁ví	-5671
chas	-5672
iana	-5673
prim	-5674
▁Two	-5675
▁ash	-5676
▁Pres	-5677
▁astr	-5678
▁coll	-5679
▁danc	-5680
▁deta	-5681
▁feet	-5682
▁lied	-5683
▁galle	-5684
▁pensé	-5685
▁share	-5686
▁treat	-5687
▁viste	-5688
▁bonito	-5689
▁debido	-5690
▁dishes	-5691
▁Jackson	-5692
▁cansada	-5693
▁empieza	-5694
▁hermoso	-5695
▁laughed	-5696
▁bolígraf	-5697
▁hermanas	-5698
▁painting	-5699
▁realized	-5700
apo	-5701
inó	-5702
host	-5703
itán	-5704
▁Ask	-5705
▁Read	-5706
▁cute	-5707
▁gold	-5708
▁Write	-5709
▁board	-5710
▁deter	-5711
▁respe	-5712
▁senci	-5713
ibility	-5714
ualidad	-5715
▁attack	-5716
▁coment	-5717
▁destru	-5718
▁fuerza	-5719
▁compras	-5720
▁espalda	-5721
▁policem	-5722
▁olvidado	-5723
▁necesitamos	-5724
uts	-5725
date	-5726
ivid	-5727
urso	-5728
▁Rom	-5729
▁Ter	-5730
▁ace	-5731
▁bañ	-5732
ósito	-5733
▁hadn	-5734
▁hang	-5735
▁tema	-5736
▁above	-5737
▁dulce	-5738
▁lápiz	-5739
▁George	-5740
▁charge	-5741
▁llegue	-5742
▁partir	-5743
▁entered	-5744
▁espacio	-5745
▁memoria	-5746
▁mentira	-5747
▁cambiado	-5748
▁position	-5749
▁explained	-5750
fortunately	-5751
▁computadora	-5752
omo	-5753
case	-5754
iosa	-5755
▁Hun	-5756
▁fit	-5757
▁oil	-5758
▁eras	-5759
▁Dicen	-5760
▁Satur	-5761
▁alegr	-5762
▁crime	-5763
▁educa	-5764
▁suele	-5765
▁embara	-5766
▁fascin	-5767
▁museum	-5768
▁estaría	-5769
▁despacio	-5770
▁carefully	-5771
▁encuentra	-5772
▁happiness	-5773
ema	-5774
ims	-5775
rea	-5776
▁Eg	-5777
bros	-5778
reat	-5779
▁Mad	-5780
▁Spe	-5781
▁Tus	-5782
▁Was	-5783
iguió	-5784
▁hero	-5785
▁loud	-5786
▁rent	-5787
▁ride	-5788
▁roja	-5789
▁roof	-5790
▁till	-5791
▁tour	-5792
▁Bring	-5793
▁Latin	-5794
▁actor	-5795
▁ended	-5796
▁exerc	-5797
▁persu	-5798
▁Excuse	-5799
▁cientí	-5800
▁habían	-5801
▁employe	-5802
▁example	-5803
▁reached	-5804
▁Tomorrow	-5805
▁original	-5806
▁suddenly	-5807
▁apologize	-5808
▁paciencia	-5809
ctu	-5810
itu	-5811
abas	-5812
este	-5813
icul	-5814
▁Man	-5815
▁ban	-5816
▁cóm	-5817
▁owe	-5818
Estoy	-5819
allow	-5820
▁Mant	-5821
▁Were	-5822
▁lady	-5823
▁resc	-5824
▁vege	-5825
▁gives	-5826
▁honor	-5827
▁pocos	-5828
▁biling	-5829
▁effect	-5830
▁soport	-5831
▁toward	-5832
eramente	-5833
imamente	-5834
▁aquella	-5835
▁concent	-5836
▁jugador	-5837
▁refused	-5838
▁sonrisa	-5839
▁understood	-5840
cib	-5841
urb	-5842
arán	-5843
okes	-5844
óvil	-5845
▁ups	-5846
astic	-5847
▁horn	-5848
▁pack	-5849
▁pref	-5850
▁temo	-5851
endido	-5852
▁acord	-5853
▁guapa	-5854
▁absent	-5855
▁bigger	-5856
▁custom	-5857
▁escape	-5858
▁idiota	-5859
▁orange	-5860
▁contain	-5861
▁forgive	-5862
▁watched	-5863
▁aburrido	-5864
▁lloviendo	-5865
▁university	-5866
aco	-5867
com	-5868
pos	-5869
▁Lu	-5870
ened	-5871
selo	-5872
▁bom	-5873
▁fed	-5874
▁nom	-5875
▁pec	-5876
▁sof	-5877
enses	-5878
ianza	-5879
ining	-5880
omach	-5881
ouses	-5882
ushed	-5883
▁alma	-5884
▁arch	-5885
▁bott	-5886
▁flat	-5887
▁refr	-5888
▁skin	-5889
▁stars	-5890
▁period	-5891
▁singer	-5892
▁healthy	-5893
▁llamada	-5894
▁neither	-5895
▁stomach	-5896
▁cantante	-5897
▁whatever	-5898
▁preocupes	-5899
bye	-5900
yle	-5901
íos	-5902
enda	-5903
▁joy	-5904
▁mic	-5905
Acaso	-5906
usion	-5907
▁roto	-5908
▁ruso	-5909
▁tuya	-5910
▁Desde	-5911
▁Hasta	-5912
▁adult	-5913
▁casas	-5914
▁hurts	-5915
▁engine	-5916
▁figure	-5917
▁smiled	-5918
▁También	-5919
▁decirte	-5920
▁delante	-5921
▁missing	-5922
▁pretend	-5923
▁almorzar	-5924
▁objetivo	-5925
▁intención	-5926
Tu	-5927
cot	-5928
ery	-5929
iér	-5930
▁zoo	-5931
uesto	-5932
▁Rima	-5933
▁heat	-5934
▁woke	-5935
ection	-5936
grafía	-5937
▁aware	-5938
▁deben	-5939
▁liber	-5940
▁talks	-5941
▁techo	-5942
Alguien	-5943
▁deporte	-5944
▁earlier	-5945
▁embargo	-5946
▁enojado	-5947
▁escribe	-5948
▁tráfico	-5949
▁wedding	-5950
▁recently	-5951
▁Something	-5952
ajo	-5953
ili	-5954
ird	-5955
▁Mo	-5956
know	-5957
émon	-5958
▁Bet	-5959
▁cit	-5960
▁sym	-5961
▁huge	-5962
▁poss	-5963
ábamos	-5964
▁Quizá	-5965
▁cause	-5966
▁magaz	-5967
▁named	-5968
▁peces	-5969
▁beauty	-5970
▁pescar	-5971
▁reserv	-5972
▁realize	-5973
▁science	-5974
▁anywhere	-5975
▁director	-5976
ert	-5977
▁oí	-5978
edio	-5979
rass	-5980
yoto	-5981
▁Hey	-5982
ativa	-5983
ísimo	-5984
▁cool	-5985
▁grew	-5986
▁nose	-5987
▁toma	-5988
▁virt	-5989
cieron	-5990
iernes	-5991
▁Antes	-5992
▁ought	-5993
▁pocas	-5994
▁quiso	-5995
▁texto	-5996
▁wears	-5997
▁cerrar	-5998
▁deport	-5999
▁regard	-6000
▁aconsejó	-6001
▁educación	-6002
▁encuentro	-6003
úd	-6004
igr	-6005
ijo	-6006
tate	-6007
íble	-6008
▁aff	-6009
▁cra	-6010
▁cán	-6011
▁fro	-6012
▁god	-6013
▁low	-6014
▁sla	-6015
zando	-6016
▁coin	-6017
▁lect	-6018
▁pond	-6019
▁risk	-6020
▁serp	-6021
güenza	-6022
▁Kyoto	-6023
▁blanc	-6024
▁group	-6025
ulation	-6026
▁object	-6027
▁retras	-6028
▁levantó	-6029
▁correcta	-6030
▁propósito	-6031
▁Deberíamos	-6032
cr	-6033
ací	-6034
bel	-6035
for	-6036
ley	-6037
culo	-6038
into	-6039
irar	-6040
pher	-6041
tery	-6042
▁Nor	-6043
▁War	-6044
▁mez	-6045
▁pez	-6046
▁yen	-6047
ified	-6048
jando	-6049
▁Berl	-6050
▁Toda	-6051
▁dete	-6052
▁magn	-6053
▁Alice	-6054
▁Decid	-6055
▁Nancy	-6056
▁Perdí	-6057
▁annoy	-6058
▁keeps	-6059
▁relax	-6060
Todavía	-6061
▁empleo	-6062
▁mismos	-6063
▁rechaz	-6064
▁dressed	-6065
▁parecen	-6066
▁segunda	-6067
▁viernes	-6068
▁answered	-6069
▁contacto	-6070
▁encantan	-6071
▁enfadado	-6072
▁innocent	-6073
▁opportun	-6074
▁relations	-6075
▁escuchando	-6076
▁preocupado	-6077
Sí	-6078
chn	-6079
rán	-6080
▁ox	-6081
▁ug	-6082
▁vir	-6083
Conoc	-6084
▁Aren	-6085
▁arma	-6086
▁robó	-6087
ctions	-6088
tables	-6089
▁abajo	-6090
▁canta	-6091
▁excel	-6092
▁fresh	-6093
▁idiot	-6094
▁preci	-6095
▁pregn	-6096
▁toile	-6097
▁button	-6098
▁consid	-6099
▁factor	-6100
▁market	-6101
▁placer	-6102
▁Because	-6103
▁aceptar	-6104
▁carrera	-6105
▁haberlo	-6106
▁lágrimas	-6107
▁sobreviv	-6108
▁straight	-6109
▁policeman	-6110
▁frecuencia	-6111
Ent	-6112
▁hy	-6113
Esto	-6114
ency	-6115
isis	-6116
tado	-6117
▁dry	-6118
alous	-6119
light	-6120
▁Dima	-6121
▁From	-6122
▁Hice	-6123
▁ears	-6124
▁repe	-6125
▁uses	-6126
icular	-6127
iremos	-6128
uvimos	-6129
▁ghost	-6130
▁revol	-6131
▁truck	-6132
▁remind	-6133
▁spring	-6134
entación	-6135
▁pintura	-6136
▁accustom	-6137
▁culpable	-6138
▁llorando	-6139
▁intelligent	-6140
uct	-6141
▁Im	-6142
melo	-6143
▁iré	-6144
▁web	-6145
icked	-6146
▁area	-6147
▁caer	-6148
▁cash	-6149
▁desh	-6150
▁diab	-6151
▁jour	-6152
▁plum	-6153
▁rule	-6154
uestas	-6155
▁Greek	-6156
▁Hablo	-6157
▁Peter	-6158
▁ambos	-6159
▁event	-6160
▁basura	-6161
▁enseñó	-6162
▁terror	-6163
▁negocio	-6164
▁theater	-6165
▁deberían	-6166
▁discurso	-6167
▁planning	-6168
▁tratando	-6169
▁oraciones	-6170
ka	-6171
▁Of	-6172
ilty	-6173
▁Pap	-6174
▁Pro	-6175
▁Rep	-6176
▁cri	-6177
▁imm	-6178
antos	-6179
gamos	-6180
▁hobb	-6181
▁surr	-6182
▁Éste	-6183
▁bella	-6184
▁costs	-6185
▁dedos	-6186
▁grave	-6187
▁stuff	-6188
▁traer	-6189
▁arriba	-6190
▁buying	-6191
▁guilty	-6192
▁itself	-6193
▁teatro	-6194
▁anciano	-6195
▁appreci	-6196
▁definit	-6197
▁naranja	-6198
▁piernas	-6199
▁sospech	-6200
▁dificult	-6201
▁viviendo	-6202
ius	-6203
oko	-6204
▁Ph	-6205
ivel	-6206
lace	-6207
line	-6208
▁san	-6209
essed	-6210
▁Arab	-6211
▁abst	-6212
▁lots	-6213
▁Habla	-6214
▁línea	-6215
▁nivel	-6216
▁paseo	-6217
▁quitó	-6218
▁saved	-6219
▁Podría	-6220
▁alegro	-6221
▁chicken	-6222
▁corbata	-6223
▁haberte	-6224
▁vuestro	-6225
▁football	-6226
▁lenguaje	-6227
▁refriger	-6228
▁oscuridad	-6229
▁principal	-6230
▁discovered	-6231
▁By	-6232
▁Po	-6233
▁añ	-6234
▁gay	-6235
▁unl	-6236
ellas	-6237
ibles	-6238
▁alim	-6239
▁amaz	-6240
▁fuck	-6241
▁join	-6242
▁mapa	-6243
▁pong	-6244
terior	-6245
▁Their	-6246
▁efect	-6247
▁habrá	-6248
▁miles	-6249
▁thief	-6250
▁torta	-6251
▁easier	-6252
▁houses	-6253
▁madera	-6254
▁pierna	-6255
▁pocket	-6256
▁honesto	-6257
▁Entonces	-6258
▁accepted	-6259
▁aquellos	-6260
▁believes	-6261
▁relación	-6262
▁solución	-6263
▁accustomed	-6264
▁comfortable	-6265
▁sorprendido	-6266
▁comportamiento	-6267
Él	-6268
Son	-6269
cen	-6270
vit	-6271
erva	-6272
ológ	-6273
time	-6274
▁Men	-6275
quito	-6276
▁enfr	-6277
▁exha	-6278
▁luch	-6279
▁tram	-6280
▁influ	-6281
▁metro	-6282
▁museo	-6283
▁Apenas	-6284
▁Compar	-6285
▁Friday	-6286
▁Siento	-6287
▁accent	-6288
▁blanca	-6289
▁convin	-6290
▁flight	-6291
▁ganado	-6292
▁likely	-6293
▁opción	-6294
▁within	-6295
▁debemos	-6296
▁individ	-6297
▁tuviera	-6298
▁absoluto	-6299
▁japonesa	-6300
▁traducción	-6301
▁escribiendo	-6302
Yo	-6303
aso	-6304
elf	-6305
ging	-6306
guro	-6307
ival	-6308
▁Jul	-6309
▁mam	-6310
▁Hold	-6311
▁Show	-6312
▁Well	-6313
▁bene	-6314
▁neck	-6315
▁Mejor	-6316
▁fired	-6317
▁prove	-6318
▁Discul	-6319
▁accomp	-6320
▁caused	-6321
▁coches	-6322
▁enviar	-6323
▁hechos	-6324
▁pieces	-6325
▁siguió	-6326
▁suicid	-6327
▁teoría	-6328
▁alumnos	-6329
▁casarse	-6330
▁confund	-6331
▁entrada	-6332
▁noticed	-6333
▁recuper	-6334
▁vecinos	-6335
▁Saturday	-6336
▁Somebody	-6337
▁inocente	-6338
▁quedarte	-6339
▁necesitan	-6340
▁preparado	-6341
▁considered	-6342
▁Gr	-6343
▁án	-6344
aded	-6345
edom	-6346
áles	-6347
▁Har	-6348
▁Veo	-6349
▁dut	-6350
Neces	-6351
▁jack	-6352
▁upon	-6353
▁absor	-6354
▁abund	-6355
▁ahead	-6356
▁botón	-6357
▁field	-6358
▁lavar	-6359
▁nariz	-6360
▁rumor	-6361
▁throw	-6362
▁vivía	-6363
▁basket	-6364
▁diario	-6365
▁nuevas	-6366
▁tenían	-6367
▁theory	-6368
▁toilet	-6369
▁tomado	-6370
▁averigu	-6371
▁belongs	-6372
▁compart	-6373
▁excepto	-6374
▁sientes	-6375
▁Desearía	-6376
▁explicar	-6377
▁sociedad	-6378
▁despierto	-6379
▁disappear	-6380
▁ejercicio	-6381
▁sorprendió	-6382
by	-6383
ric	-6384
atar	-6385
jeta	-6386
pper	-6387
uros	-6388
▁Say	-6389
▁Time	-6390
▁abre	-6391
▁boat	-6392
▁negó	-6393
▁ofre	-6394
▁vers	-6395
▁wise	-6396
▁harto	-6397
▁agreed	-6398
▁crimen	-6399
▁matrim	-6400
▁scream	-6401
▁vender	-6402
▁amistad	-6403
▁ashamed	-6404
▁believed	-6405
▁negocios	-6406
▁pequeños	-6407
▁forgotten	-6408
▁impresion	-6409
▁probablemente	-6410
▁verdaderamente	-6411
Th	-6412
érd	-6413
iens	-6414
omen	-6415
remo	-6416
▁Mom	-6417
▁iss	-6418
▁mut	-6419
iando	-6420
icans	-6421
itude	-6422
▁Llev	-6423
▁apro	-6424
▁cabo	-6425
▁fond	-6426
▁hell	-6427
▁liar	-6428
▁note	-6429
▁sobr	-6430
▁veía	-6431
▁Según	-6432
▁Whose	-6433
▁broma	-6434
▁threw	-6435
▁confer	-6436
▁esposo	-6437
▁flying	-6438
▁notice	-6439
▁sintió	-6440
▁volunt	-6441
▁vuelva	-6442
▁advanta	-6443
▁describ	-6444
▁earthqu	-6445
▁enseñar	-6446
▁washing	-6447
▁internet	-6448
▁muchacho	-6449
▁convencer	-6450
▁translated	-6451
▁Unfortunately	-6452
íe	-6453
▁CD	-6454
cito	-6455
elve	-6456
▁Acc	-6457
▁Bel	-6458
▁Che	-6459
▁vig	-6460
ident	-6461
ónico	-6462
▁cone	-6463
▁harm	-6464
▁hubo	-6465
▁pool	-6466
▁rara	-6467
▁util	-6468
▁alarm	-6469
▁becom	-6470
▁facil	-6471
▁usual	-6472
▁acento	-6473
▁actual	-6474
▁enferm	-6475
▁explan	-6476
▁ground	-6477
▁premio	-6478
▁proper	-6479
▁propos	-6480
▁scient	-6481
▁cookies	-6482
▁enjoyed	-6483
▁frances	-6484
▁vuestra	-6485
▁behavior	-6486
▁mathemat	-6487
▁pertenece	-6488
▁posibilidad	-6489
▁translation	-6490
izó	-6491
zan	-6492
zca	-6493
▁Ob	-6494
ript	-6495
embre	-6496
▁Fuji	-6497
▁curr	-6498
▁doce	-6499
▁dura	-6500
▁ugly	-6501
▁meter	-6502
▁cancer	-6503
▁filled	-6504
▁imagin	-6505
▁lights	-6506
▁nativo	-6507
▁oferta	-6508
▁parado	-6509
▁Queremos	-6510
▁millones	-6511
▁prepared	-6512
▁condition	-6513
▁confianza	-6514
▁distancia	-6515
▁japoneses	-6516
úa	-6517
umo	-6518
vió	-6519
Pero	-6520
irlo	-6521
mago	-6522
ping	-6523
▁Ste	-6524
icate	-6525
▁gall	-6526
▁intr	-6527
▁ries	-6528
iously	-6529
▁Llevo	-6530
▁citiz	-6531
▁hayas	-6532
▁metal	-6533
▁pisto	-6534
▁tooth	-6535
ización	-6536
▁Cuanto	-6537
▁center	-6538
▁página	-6539
▁querés	-6540
▁painted	-6541
▁permite	-6542
▁artículo	-6543
▁galletas	-6544
▁pregnant	-6545
▁starting	-6546
Ha	-6547
lado	-6548
▁Dad	-6549
▁ras	-6550
▁Será	-6551
▁arru	-6552
▁boda	-6553
▁math	-6554
▁prec	-6555
▁unif	-6556
ienven	-6557
▁cards	-6558
▁games	-6559
▁mover	-6560
▁siglo	-6561
▁Greece	-6562
▁barely	-6563
▁bright	-6564
▁detall	-6565
▁gentle	-6566
▁quince	-6567
▁sonido	-6568
▁Lamento	-6569
▁Welcome	-6570
▁bedroom	-6571
▁calling	-6572
▁industr	-6573
▁instead	-6574
▁jealous	-6575
▁vegetar	-6576
▁windows	-6577
▁According	-6578
▁bolígrafo	-6579
▁seriously	-6580
▁finalmente	-6581
▁interesado	-6582
▁profundamente	-6583
aca	-6584
iko	-6585
▁Ko	-6586
igió	-6587
ware	-6588
▁Rem	-6589
▁haz	-6590
▁lee	-6591
▁lon	-6592
esper	-6593
árcel	-6594
▁Toma	-6595
▁arms	-6596
▁rica	-6597
▁sour	-6598
▁Jamás	-6599
▁andar	-6600
▁darle	-6601
▁hojas	-6602
▁práct	-6603
▁refer	-6604
▁toler	-6605
▁access	-6606
▁harder	-6607
▁nature	-6608
▁Without	-6609
▁hablado	-6610
▁results	-6611
▁probable	-6612
▁knowledge	-6613
Os	-6614
my	-6615
ác	-6616
ág	-6617
amas	-6618
ocks	-6619
orro	-6620
▁alt	-6621
▁pir	-6622
▁rar	-6623
ativo	-6624
etros	-6625
ivers	-6626
queta	-6627
▁Algo	-6628
▁ater	-6629
▁dedo	-6630
▁disg	-6631
▁iron	-6632
▁piel	-6633
iencia	-6634
▁corto	-6635
▁fondo	-6636
▁linda	-6637
▁Grecia	-6638
▁cáncer	-6639
▁cárcel	-6640
▁pantal	-6641
▁picked	-6642
▁tempor	-6643
▁tendrá	-6644
▁cerrada	-6645
▁desarro	-6646
▁energía	-6647
▁ordered	-6648
▁permiso	-6649
▁stories	-6650
▁talento	-6651
▁terremo	-6652
▁carretera	-6653
▁increíble	-6654
▁respondió	-6655
▁Probablemente	-6656
Re	-6657
iró	-6658
▁Na	-6659
ased	-6660
cina	-6661
onto	-6662
ugal	-6663
▁Bar	-6664
▁San	-6665
▁alc	-6666
▁ced	-6667
▁ess	-6668
▁fer	-6669
▁pil	-6670
▁tía	-6671
ática	-6672
▁Cual	-6673
▁mord	-6674
ission	-6675
uestos	-6676
▁cried	-6677
▁dying	-6678
▁state	-6679
▁Estuve	-6680
▁ascens	-6681
▁asegur	-6682
▁compos	-6683
▁enorme	-6684
▁giving	-6685
▁hablas	-6686
▁hables	-6687
▁llegué	-6688
▁master	-6689
▁modern	-6690
▁oscuro	-6691
▁sincer	-6692
▁usando	-6693
▁plantas	-6694
▁adelante	-6695
▁cuestión	-6696
▁sorpresa	-6697
▁supuesto	-6698
▁ourselves	-6699
▁casualidad	-6700
▁resultados	-6701
▁relationship	-6702
Los	-6703
gle	-6704
born	-6705
igas	-6706
ileg	-6707
imed	-6708
uses	-6709
usta	-6710
▁Dos	-6711
▁Fir	-6712
▁das	-6713
▁sev	-6714
arter	-6715
▁Debe	-6716
▁Mamá	-6717
▁agar	-6718
▁elef	-6719
▁farm	-6720
▁hall	-6721
▁obed	-6722
▁size	-6723
Adónde	-6724
cuenta	-6725
▁brush	-6726
▁creía	-6727
▁guest	-6728
▁hable	-6729
▁heada	-6730
▁quise	-6731
▁stick	-6732
uestros	-6733
▁Canada	-6734
▁develo	-6735
▁lentes	-6736
▁depende	-6737
▁estudio	-6738
▁manejar	-6739
▁prisión	-6740
▁recibió	-6741
▁welcome	-6742
▁willing	-6743
▁continue	-6744
▁nervioso	-6745
▁pleasure	-6746
▁proteger	-6747
▁servicio	-6748
▁artificial	-6749
▁vegetables	-6750
▁explicación	-6751
It	-6752
hi	-6753
rid	-6754
▁Mé	-6755
▁Wor	-6756
▁lay	-6757
quete	-6758
ómago	-6759
▁Papá	-6760
▁evil	-6761
▁fría	-6762
Querés	-6763
▁ahorr	-6764
▁bajar	-6765
▁cheap	-6766
▁encar	-6767
▁memor	-6768
▁steal	-6769
▁volar	-6770
▁Columb	-6771
▁asesin	-6772
▁cambió	-6773
▁picnic	-6774
▁thirst	-6775
▁estómago	-6776
▁listened	-6777
▁solution	-6778
▁matrimonio	-6779
▁explanation	-6780
aya	-6781
uls	-6782
yos	-6783
▁Or	-6784
▁Va	-6785
aled	-6786
ubes	-6787
▁Mat	-6788
ength	-6789
ipped	-6790
tempt	-6791
▁Conf	-6792
▁Llam	-6793
▁Trat	-6794
▁actr	-6795
▁aman	-6796
▁aunt	-6797
▁blow	-6798
▁runs	-6799
▁sofá	-6800
▁Ambos	-6801
▁Brown	-6802
▁arena	-6803
▁brown	-6804
▁stuck	-6805
▁techn	-6806
▁vuelo	-6807
▁Canadá	-6808
▁Father	-6809
▁camión	-6810
▁cousin	-6811
▁energy	-6812
▁entero	-6813
▁excell	-6814
▁intend	-6815
▁pelota	-6816
▁tastes	-6817
▁hacerte	-6818
▁injured	-6819
▁society	-6820
▁speaker	-6821
▁Portugal	-6822
▁comenzar	-6823
▁recuerda	-6824
▁ventanas	-6825
▁character	-6826
▁embarrass	-6827
▁excelente	-6828
▁inmediato	-6829
▁resfriado	-6830
ortunadamente	-6831
ids	-6832
idez	-6833
irte	-6834
lear	-6835
wing	-6836
▁Sim	-6837
▁Vas	-6838
razos	-6839
▁Help	-6840
▁Incl	-6841
▁Lear	-6842
▁Paul	-6843
▁anal	-6844
▁frut	-6845
▁mood	-6846
icians	-6847
uguese	-6848
▁Betty	-6849
▁Quien	-6850
▁Sabes	-6851
▁acabó	-6852
▁adecu	-6853
▁creen	-6854
▁grass	-6855
▁impro	-6856
▁plato	-6857
▁poema	-6858
▁tight	-6859
▁vemos	-6860
▁Berber	-6861
▁Pronto	-6862
▁corner	-6863
▁crisis	-6864
▁enseña	-6865
▁gratis	-6866
▁washed	-6867
▁century	-6868
▁cigaret	-6869
▁destino	-6870
▁managed	-6871
▁arrested	-6872
▁estrella	-6873
▁followed	-6874
▁intentar	-6875
▁passport	-6876
▁prometió	-6877
▁soldados	-6878
▁estábamos	-6879
▁satisfecho	-6880
▁significado	-6881
▁disappointed	-6882
Oh	-6883
rón	-6884
ént	-6885
haps	-6886
onna	-6887
▁cad	-6888
▁tor	-6889
antly	-6890
aster	-6891
itter	-6892
riage	-6893
▁Hubo	-6894
▁Octo	-6895
▁Roma	-6896
▁Rome	-6897
▁alqu	-6898
▁insp	-6899
▁lazy	-6900
▁pérd	-6901
ctubre	-6902
itions	-6903
though	-6904
▁Sería	-6905
▁brain	-6906
▁calls	-6907
▁champ	-6908
▁despe	-6909
▁infin	-6910
▁meant	-6911
▁occur	-6912
▁pasap	-6913
▁sacar	-6914
▁sentí	-6915
▁alegra	-6916
▁elegir	-6917
▁herido	-6918
▁resist	-6919
▁respet	-6920
▁silent	-6921
▁talent	-6922
▁twelve	-6923
▁vecino	-6924
▁vuelve	-6925
ivamente	-6926
▁October	-6927
▁avergon	-6928
▁deserve	-6929
▁reality	-6930
▁descanso	-6931
▁esfuerzo	-6932
▁involved	-6933
▁empleados	-6934
▁mintiendo	-6935
▁cualquiera	-6936
▁experiment	-6937
Si	-6938
ob	-6939
apt	-6940
ode	-6941
▁Oí	-6942
appy	-6943
usia	-6944
vail	-6945
▁Act	-6946
▁Chr	-6947
▁Más	-6948
▁ara	-6949
▁ard	-6950
▁gem	-6951
▁juz	-6952
▁ore	-6953
icted	-6954
ieved	-6955
jeras	-6956
▁Hola	-6957
▁baja	-6958
▁weak	-6959
▁White	-6960
▁echar	-6961
▁horiz	-6962
▁round	-6963
▁señal	-6964
▁afford	-6965
▁conocí	-6966
▁entren	-6967
▁memory	-6968
▁search	-6969
▁cabello	-6970
▁escucha	-6971
▁largest	-6972
▁ninguno	-6973
▁tiempos	-6974
▁Encontré	-6975
▁italiano	-6976
▁cincuenta	-6977
▁fácilmente	-6978
▁particular	-6979
ered	-6980
onia	-6981
▁bud	-6982
▁oto	-6983
▁rac	-6984
under	-6985
▁Cont	-6986
▁avis	-6987
▁desn	-6988
▁diam	-6989
▁grab	-6990
▁horm	-6991
▁kilo	-6992
▁suyo	-6993
▁torn	-6994
▁Islam	-6995
▁atrap	-6996
▁decía	-6997
▁latín	-6998
▁perdí	-6999
▁yenes	-7000
▁Espera	-7001
▁Mexico	-7002
▁critic	-7003
▁mostró	-7004
▁pareja	-7005
▁smells	-7006
▁sábado	-7007
▁courage	-7008
▁desapar	-7009
▁distance	-7010
▁incendio	-7011
▁Americans	-7012
▁Portuguese	-7013
Ah	-7014
eas	-7015
eds	-7016
lies	-7017
uary	-7018
urse	-7019
▁cep	-7020
▁mej	-7021
▁shy	-7022
▁Kore	-7023
▁conn	-7024
▁empe	-7025
▁meta	-7026
▁ocas	-7027
▁Ésta	-7028
▁World	-7029
▁nubes	-7030
▁tanta	-7031
▁weird	-7032
▁altern	-7033
▁artist	-7034
▁aument	-7035
▁compla	-7036
▁explos	-7037
▁fracas	-7038
▁mister	-7039
▁origin	-7040
▁democra	-7041
▁dropped	-7042
▁portugu	-7043
▁precios	-7044
▁derechos	-7045
▁headache	-7046
▁practice	-7047
▁sandwich	-7048
▁supermer	-7049
▁advantage	-7050
▁employees	-7051
▁escaleras	-7052
▁excellent	-7053
▁pantalones	-7054
▁opportunity	-7055
▁responsable	-7056
▁inteligencia	-7057
roe	-7058
form	-7059
ites	-7060
ouds	-7061
útil	-7062
▁Eat	-7063
iloso	-7064
tamos	-7065
▁Each	-7066
▁Norm	-7067
▁Wash	-7068
▁abol	-7069
▁cred	-7070
▁whom	-7071
market	-7072
tación	-7073
▁Empez	-7074
▁Linda	-7075
▁Trans	-7076
▁guste	-7077
▁judge	-7078
▁mirar	-7079
▁nurse	-7080
▁vimos	-7081
▁Argent	-7082
▁Mother	-7083
▁begins	-7084
▁clever	-7085
▁parada	-7086
▁romper	-7087
▁visita	-7088
▁aliment	-7089
▁bienven	-7090
▁funeral	-7091
▁querías	-7092
▁tarjeta	-7093
▁cantando	-7094
▁criminal	-7095
▁discutir	-7096
▁exercise	-7097
▁multitud	-7098
▁aprendido	-7099
▁habilidad	-7100
▁propuesta	-7101
▁extranjeros	-7102
▁supermarket	-7103
azz	-7104
bil	-7105
fit	-7106
▁Sa	-7107
▁ór	-7108
ezco	-7109
pret	-7110
▁Ped	-7111
▁spo	-7112
▁tam	-7113
▁tím	-7114
elled	-7115
estra	-7116
ierda	-7117
ortal	-7118
▁Open	-7119
▁appo	-7120
▁furn	-7121
▁pair	-7122
▁poll	-7123
▁pose	-7124
▁rose	-7125
▁stat	-7126
▁escla	-7127
▁fixed	-7128
▁huele	-7129
▁major	-7130
▁pobla	-7131
▁repet	-7132
▁barato	-7133
▁curios	-7134
▁llamas	-7135
▁merece	-7136
▁changes	-7137
▁conocía	-7138
▁created	-7139
▁estudia	-7140
▁matters	-7141
▁pronoun	-7142
▁recoger	-7143
▁request	-7144
▁resultó	-7145
▁revista	-7146
▁cantidad	-7147
▁programa	-7148
▁religión	-7149
▁vosotras	-7150
▁pasaporte	-7151
▁friendship	-7152
▁population	-7153
▁complaining	-7154
ioto	-7155
itor	-7156
▁Alm	-7157
▁Mag	-7158
▁deg	-7159
▁fan	-7160
▁gat	-7161
idado	-7162
iebre	-7163
ising	-7164
▁Mill	-7165
▁flag	-7166
▁paró	-7167
Cuáles	-7168
▁Solía	-7169
▁Watch	-7170
▁ayude	-7171
▁desaf	-7172
▁optim	-7173
▁songs	-7174
▁speci	-7175
▁trajo	-7176
▁Madrid	-7177
▁Should	-7178
▁brazos	-7179
▁confir	-7180
▁duerme	-7181
▁forced	-7182
▁fuiste	-7183
▁insist	-7184
▁locked	-7185
▁olvidé	-7186
▁sleepy	-7187
▁artista	-7188
▁cultura	-7189
▁fingers	-7190
▁mention	-7191
▁tomando	-7192
▁volverá	-7193
▁Mientras	-7194
▁potatoes	-7195
▁teaching	-7196
▁classroom	-7197
▁embarazada	-7198
cut	-7199
uce	-7200
Ella	-7201
cles	-7202
ecía	-7203
emon	-7204
▁Isn	-7205
▁tap	-7206
▁urg	-7207
▁voc	-7208
Tengo	-7209
ianos	-7210
phone	-7211
▁Esos	-7212
▁atre	-7213
▁duty	-7214
▁irre	-7215
▁meth	-7216
▁sons	-7217
cident	-7218
▁Kioto	-7219
▁amaba	-7220
▁conte	-7221
▁doble	-7222
▁huevo	-7223
▁obten	-7224
▁otoño	-7225
▁salvo	-7226
▁Tienen	-7227
▁estuve	-7228
▁ingles	-7229
▁inútil	-7230
▁llevas	-7231
▁mirror	-7232
▁myster	-7233
▁season	-7234
▁sooner	-7235
▁spread	-7236
▁accused	-7237
▁cerebro	-7238
▁conserv	-7239
▁freedom	-7240
▁hearing	-7241
▁molesta	-7242
▁octubre	-7243
▁pleased	-7244
▁últimos	-7245
▁arreglar	-7246
▁soldiers	-7247
▁soportar	-7248
▁compraste	-7249
▁convinced	-7250
▁education	-7251
▁extremely	-7252
▁población	-7253
▁appreciate	-7254
▁conciencia	-7255
Do	-7256
etes	-7257
ners	-7258
orra	-7259
éctr	-7260
▁Ann	-7261
▁Apr	-7262
▁Jud	-7263
▁cál	-7264
asses	-7265
olvió	-7266
▁ador	-7267
▁cola	-7268
▁comí	-7269
▁fábr	-7270
▁race	-7271
▁wore	-7272
▁Mucha	-7273
▁Water	-7274
▁casar	-7275
▁etern	-7276
▁norte	-7277
▁prize	-7278
▁ratón	-7279
▁sharp	-7280
▁shout	-7281
▁México	-7282
▁Polish	-7283
▁casada	-7284
▁declar	-7285
▁fiebre	-7286
▁provoc	-7287
▁quedan	-7288
▁raised	-7289
▁sonrió	-7290
▁trampa	-7291
▁viejos	-7292
▁writer	-7293
▁correos	-7294
▁piensan	-7295
▁quedado	-7296
▁admitted	-7297
▁prestado	-7298
▁caminando	-7299
▁temperatura	-7300
You	-7301
ati	-7302
ecé	-7303
iff	-7304
tres	-7305
▁Det	-7306
▁ine	-7307
▁rod	-7308
▁tow	-7309
bling	-7310
▁bail	-7311
▁beso	-7312
▁diet	-7313
▁evol	-7314
▁irte	-7315
▁meas	-7316
▁rang	-7317
▁vote	-7318
uerzos	-7319
▁amena	-7320
▁corta	-7321
▁costó	-7322
▁darme	-7323
▁decor	-7324
▁hecha	-7325
▁hobby	-7326
▁llevo	-7327
▁luces	-7328
▁mante	-7329
▁naked	-7330
▁third	-7331
▁vende	-7332
▁volun	-7333
intment	-7334
▁Listen	-7335
▁Quizás	-7336
▁affect	-7337
▁eléctr	-7338
▁espejo	-7339
▁fuimos	-7340
▁lonely	-7341
▁nearly	-7342
▁robado	-7343
▁vivido	-7344
▁wealth	-7345
▁Incluso	-7346
▁article	-7347
▁bandera	-7348
▁mayores	-7349
▁mercado	-7350
▁piscina	-7351
▁promesa	-7352
▁Columbus	-7353
▁greatest	-7354
▁midnight	-7355
▁quisiera	-7356
▁teachers	-7357
▁neighbors	-7358
▁temperature	-7359
▁supermercado	-7360
jé	-7361
Yes	-7362
rar	-7363
erve	-7364
xual	-7365
▁Mil	-7366
▁Mur	-7367
▁kne	-7368
▁mañ	-7369
▁yes	-7370
ienta	-7371
istes	-7372
uelve	-7373
urado	-7374
▁appe	-7375
▁lock	-7376
▁mail	-7377
▁rosa	-7378
▁sacr	-7379
▁weap	-7380
▁Colón	-7381
▁acuer	-7382
▁avail	-7383
▁derro	-7384
▁fever	-7385
▁fifty	-7386
▁inclu	-7387
▁oppos	-7388
▁solar	-7389
▁Escuch	-7390
▁allerg	-7391
▁astron	-7392
▁cuerda	-7393
▁defend	-7394
▁dispon	-7395
▁effort	-7396
▁imagen	-7397
▁median	-7398
utamente	-7399
▁Pareces	-7400
▁absence	-7401
▁collect	-7402
▁colores	-7403
▁culture	-7404
▁extraña	-7405
▁fifteen	-7406
▁imagine	-7407
▁instrum	-7408
▁studies	-7409
▁ciudades	-7410
▁patience	-7411
▁canciones	-7412
▁invitados	-7413
▁vergüenza	-7414
▁apartamento	-7415
▁mantequilla	-7416
bit	-7417
ify	-7418
kay	-7419
nal	-7420
ron	-7421
abul	-7422
aces	-7423
iate	-7424
▁Ins	-7425
▁bow	-7426
▁lit	-7427
▁ski	-7428
▁veh	-7429
▁bere	-7430
▁bite	-7431
▁carp	-7432
▁cint	-7433
unciar	-7434
▁cover	-7435
▁equal	-7436
▁faith	-7437
▁hogar	-7438
▁raise	-7439
▁veloc	-7440
Conoces	-7441
ilities	-7442
▁jumped	-7443
▁plants	-7444
▁tratar	-7445
▁attempt	-7446
▁carried	-7447
▁classes	-7448
▁cometer	-7449
▁conocen	-7450
▁dancing	-7451
▁hablaba	-7452
▁pérdida	-7453
▁caballos	-7454
▁convince	-7455
▁handsome	-7456
▁magazine	-7457
▁whenever	-7458
▁responsible	-7459
▁últimamente	-7460
The	-7461
imp	-7462
iós	-7463
▁Bi	-7464
ards	-7465
cean	-7466
Están	-7467
estas	-7468
▁Didn	-7469
▁lift	-7470
▁quím	-7471
▁Chica	-7472
▁ducha	-7473
▁malas	-7474
▁sirve	-7475
▁Fuimos	-7476
▁cuello	-7477
▁divers	-7478
▁invite	-7479
▁probar	-7480
▁rights	-7481
▁salido	-7482
▁tenías	-7483
▁helping	-7484
▁mañanas	-7485
▁regalos	-7486
▁robaron	-7487
▁apareció	-7488
▁completo	-7489
▁empezado	-7490
▁escritor	-7491
▁fighting	-7492
▁facilidad	-7493
▁following	-7494
▁necesidad	-7495
▁medianoche	-7496
ls	-7497
mb	-7498
ram	-7499
▁Us	-7500
ints	-7501
ucho	-7502
▁Cat	-7503
▁Hag	-7504
aries	-7505
itado	-7506
▁Once	-7507
▁echó	-7508
▁hill	-7509
▁jazz	-7510
▁sonó	-7511
▁climb	-7512
▁cortó	-7513
▁diría	-7514
▁drown	-7515
▁eleph	-7516
▁helps	-7517
▁jokes	-7518
▁skirt	-7519
▁weigh	-7520
▁clouds	-7521
▁commit	-7522
▁herida	-7523
▁humana	-7524
▁jacket	-7525
▁poison	-7526
▁Chicago	-7527
▁materna	-7528
▁olvidar	-7529
▁pensado	-7530
▁alcanzar	-7531
▁strength	-7532
▁certainly	-7533
▁consiguió	-7534
▁desayunar	-7535
▁earthquake	-7536
▁everywhere	-7537
het	-7538
uga	-7539
▁ib	-7540
cket	-7541
iant	-7542
oner	-7543
onía	-7544
reen	-7545
word	-7546
▁Lev	-7547
▁cro	-7548
▁ego	-7549
▁obe	-7550
yendo	-7551
ámame	-7552
▁Then	-7553
▁dict	-7554
▁dumb	-7555
▁llen	-7556
▁nave	-7557
▁path	-7558
▁pere	-7559
▁puer	-7560
▁sust	-7561
▁Three	-7562
▁brome	-7563
▁finan	-7564
▁mouse	-7565
▁pollo	-7566
▁remar	-7567
▁shoot	-7568
Podemos	-7569
▁cuidar	-7570
▁dieron	-7571
▁conoces	-7572
▁contrib	-7573
▁enemies	-7574
▁interna	-7575
▁recibir	-7576
▁suspect	-7577
▁enemigos	-7578
▁marriage	-7579
▁profundo	-7580
▁surround	-7581
▁contrario	-7582
▁consciente	-7583
▁conocimiento	-7584
▁conversación	-7585
▁absolutamente	-7586
iny	-7587
ecen	-7588
eday	-7589
elas	-7590
rabe	-7591
ulta	-7592
uted	-7593
wers	-7594
▁Lin	-7595
▁cot	-7596
ciera	-7597
iture	-7598
terna	-7599
▁Dijo	-7600
▁Shut	-7601
▁desm	-7602
▁page	-7603
▁Hello	-7604
▁cargo	-7605
▁conce	-7606
▁dieta	-7607
▁gordo	-7608
▁famosa	-7609
▁golpeó	-7610
▁losing	-7611
▁maleta	-7612
▁manten	-7613
▁moving	-7614
▁podido	-7615
▁recomm	-7616
▁supone	-7617
▁Podemos	-7618
▁iguales	-7619
▁supiera	-7620
▁thirsty	-7621
▁approach	-7622
▁ascensor	-7623
▁suitcase	-7624
▁mountains	-7625
▁portugués	-7626
▁professor	-7627
▁distinguir	-7628
ete	-7629
íes	-7630
segu	-7631
urón	-7632
▁oso	-7633
eding	-7634
iable	-7635
tería	-7636
uncia	-7637
zaron	-7638
úrate	-7639
▁None	-7640
▁calc	-7641
▁chem	-7642
▁drop	-7643
▁meal	-7644
▁sois	-7645
▁Crist	-7646
▁First	-7647
▁betra	-7648
▁darte	-7649
▁kinds	-7650
▁level	-7651
▁árabe	-7652
▁anillo	-7653
▁design	-7654
▁dulces	-7655
▁flauta	-7656
▁mierda	-7657
▁paying	-7658
▁rained	-7659
▁thanks	-7660
▁threat	-7661
▁Ninguno	-7662
▁capable	-7663
▁explicó	-7664
▁interés	-7665
▁private	-7666
▁sucedió	-7667
▁teaches	-7668
▁argument	-7669
▁bolsillo	-7670
▁elevator	-7671
▁permitir	-7672
▁conscious	-7673
▁convirtió	-7674
▁verdadera	-7675
▁comprender	-7676
▁normalmente	-7677
▁neighborhood	-7678
▁estadounidense	-7679
ij	-7680
uf	-7681
law	-7682
umn	-7683
ást	-7684
Este	-7685
▁Luc	-7686
▁ast	-7687
▁irá	-7688
▁nuc	-7689
▁ses	-7690
▁wol	-7691
antic	-7692
▁acep	-7693
▁besó	-7694
▁diré	-7695
▁none	-7696
▁nota	-7697
itorio	-7698
émonos	-7699
▁awake	-7700
▁cloud	-7701
▁cough	-7702
▁graci	-7703
▁honey	-7704
▁names	-7705
▁niñas	-7706
▁solos	-7707
▁corrió	-7708
▁drogas	-7709
▁formas	-7710
▁física	-7711
▁habéis	-7712
▁perdón	-7713
▁quejar	-7714
▁sabido	-7715
icionado	-7716
▁acabado	-7717
▁adentro	-7718
▁holiday	-7719
▁improve	-7720
▁informe	-7721
▁volveré	-7722
▁ausencia	-7723
▁castillo	-7724
▁cuarenta	-7725
▁document	-7726
▁national	-7727
▁nosotras	-7728
▁politics	-7729
▁preocupa	-7730
▁conductor	-7731
▁furniture	-7732
▁violencia	-7733
ho	-7734
uo	-7735
íd	-7736
üe	-7737
arm	-7738
érg	-7739
▁hé	-7740
▁om	-7741
aves	-7742
iaba	-7743
▁Abr	-7744
▁Hav	-7745
▁Hol	-7746
▁Iré	-7747
▁ben	-7748
▁ger	-7749
▁jam	-7750
▁reh	-7751
osaur	-7752
▁madr	-7753
▁pele	-7754
▁punt	-7755
iertas	-7756
▁Bueno	-7757
▁angel	-7758
▁aterr	-7759
▁ciego	-7760
▁email	-7761
▁pants	-7762
▁primo	-7763
▁total	-7764
▁Russia	-7765
▁castle	-7766
▁conden	-7767
▁gotten	-7768
▁includ	-7769
▁method	-7770
▁Intenté	-7771
▁abierto	-7772
▁answers	-7773
▁bereber	-7774
▁emocion	-7775
▁haberme	-7776
▁offered	-7777
▁comienzo	-7778
▁insectos	-7779
▁presente	-7780
▁proposal	-7781
▁stronger	-7782
▁expecting	-7783
▁mentiroso	-7784
▁pretended	-7785
▁represent	-7786
▁velocidad	-7787
In	-7788
Com	-7789
ern	-7790
ked	-7791
▁Hi	-7792
eliz	-7793
yond	-7794
▁Day	-7795
▁Hum	-7796
▁Vis	-7797
▁obt	-7798
▁oyó	-7799
▁und	-7800
ients	-7801
▁bell	-7802
▁decl	-7803
▁ejér	-7804
▁jugo	-7805
▁moda	-7806
▁roll	-7807
▁wild	-7808
▁éste	-7809
icious	-7810
itando	-7811
▁Recib	-7812
▁ideal	-7813
▁imper	-7814
▁resem	-7815
▁sport	-7816
cientos	-7817
▁Escrib	-7818
▁Perdón	-7819
▁calcet	-7820
▁credit	-7821
▁detuvo	-7822
▁pedido	-7823
▁querer	-7824
▁quitar	-7825
▁recono	-7826
▁stairs	-7827
▁Trabajo	-7828
▁Tuvimos	-7829
▁amazing	-7830
▁clearly	-7831
▁failure	-7832
▁goodbye	-7833
▁respeto	-7834
▁murieron	-7835
▁according	-7836
▁available	-7837
▁childhood	-7838
▁esfuerzos	-7839
▁condiciones	-7840
▁importancia	-7841
▁mathematics	-7842
dy	-7843
wh	-7844
ald	-7845
▁Ta	-7846
adir	-7847
iped	-7848
irts	-7849
rash	-7850
▁Sea	-7851
▁Desc	-7852
▁Taro	-7853
▁aves	-7854
▁circ	-7855
▁dare	-7856
▁daré	-7857
▁jail	-7858
▁shit	-7859
Quiere	-7860
▁Rusia	-7861
▁gonna	-7862
▁musul	-7863
▁según	-7864
▁socks	-7865
▁tenés	-7866
▁veint	-7867
▁Hungar	-7868
▁burned	-7869
▁colour	-7870
▁cruzar	-7871
▁culpar	-7872
▁denied	-7873
▁habías	-7874
▁riesgo	-7875
▁depends	-7876
▁detener	-7877
▁fortune	-7878
▁members	-7879
▁parecer	-7880
▁Recuerdo	-7881
▁attacked	-7882
▁montañas	-7883
▁muchacha	-7884
▁nacional	-7885
▁wondered	-7886
▁discusión	-7887
▁políticos	-7888
▁prohibido	-7889
▁profesores	-7890
▁examination	-7891
▁conversation	-7892
íb	-7893
jón	-7894
tan	-7895
ypt	-7896
dial	-7897
gged	-7898
ulto	-7899
▁Sud	-7900
▁psy	-7901
▁rap	-7902
orter	-7903
▁Entr	-7904
▁créd	-7905
▁ends	-7906
▁fill	-7907
▁ileg	-7908
▁rude	-7909
icción	-7910
▁Women	-7911
▁ambul	-7912
▁armas	-7913
▁brave	-7914
▁flute	-7915
▁gasol	-7916
▁incap	-7917
▁letra	-7918
▁lindo	-7919
▁móvil	-7920
▁polvo	-7921
▁reina	-7922
▁revel	-7923
▁sales	-7924
▁seres	-7925
▁stamp	-7926
▁apagar	-7927
▁cities	-7928
▁cuadro	-7929
▁distra	-7930
▁genial	-7931
▁pobres	-7932
▁remain	-7933
▁resign	-7934
▁cartera	-7935
▁existen	-7936
▁fracaso	-7937
▁hacerme	-7938
▁pareció	-7939
▁remedio	-7940
▁appeared	-7941
▁determin	-7942
▁esconder	-7943
▁miembros	-7944
▁voluntad	-7945
▁empezando	-7946
▁introduce	-7947
▁terremoto	-7948
▁individual	-7949
▁intelligence	-7950
abe	-7951
ule	-7952
umi	-7953
zen	-7954
▁mé	-7955
▁ép	-7956
rael	-7957
umul	-7958
▁Amo	-7959
▁ape	-7960
▁inh	-7961
adura	-7962
anges	-7963
ators	-7964
ficos	-7965
icado	-7966
manes	-7967
▁Corr	-7968
▁Desp	-7969
▁Esas	-7970
▁Musl	-7971
▁abra	-7972
▁acqu	-7973
▁burl	-7974
▁chat	-7975
▁diag	-7976
▁pian	-7977
▁spir	-7978
ciente	-7979
isteis	-7980
ámonos	-7981
▁Franc	-7982
▁Olvid	-7983
▁Think	-7984
▁acabo	-7985
▁crash	-7986
▁curso	-7987
▁fence	-7988
▁guapo	-7989
▁quebr	-7990
▁saltó	-7991
▁vacía	-7992
ológico	-7993
▁Carlos	-7994
▁Thomas	-7995
▁beyond	-7996
▁bottom	-7997
▁ingres	-7998
▁juegos	-7999
▁medida	-8000
▁muñeca	-8001
▁starts	-8002
▁unless	-8003
▁writes	-8004
amientos	-8005
▁calidad	-8006
▁escuchó	-8007
▁illness	-8008
▁maestra	-8009
▁philoso	-8010
▁receive	-8011
▁saberlo	-8012
▁chaqueta	-8013
▁complete	-8014
▁deportes	-8015
▁economía	-8016
▁pregunté	-8017
"?	-8018
eze	-8019
lad	-8020
ñar	-8021
▁ow	-8022
icto	-8023
jeto	-8024
urry	-8025
íste	-8026
▁Cor	-8027
▁Jew	-8028
▁Mos	-8029
▁non	-8030
ónica	-8031
▁Asia	-8032
▁army	-8033
▁dece	-8034
▁defe	-8035
▁dejé	-8036
▁espa	-8037
▁moto	-8038
▁poca	-8039
▁thin	-8040
▁veré	-8041
ashion	-8042
▁Mario	-8043
▁cerró	-8044
▁cogió	-8045
▁indis	-8046
▁legal	-8047
▁solic	-8048
▁telef	-8049
▁tells	-8050
feriría	-8051
▁Before	-8052
▁aceite	-8053
▁deeply	-8054
▁inevit	-8055
▁podéis	-8056
▁repair	-8057
▁señora	-8058
▁alegría	-8059
▁aproxim	-8060
▁disease	-8061
▁disgust	-8062
▁efforts	-8063
▁foolish	-8064
▁fortuna	-8065
▁sweater	-8066
▁Disculpe	-8067
▁friendly	-8068
▁violence	-8069
▁Christian	-8070
▁billetera	-8071
▁interrump	-8072
▁televisor	-8073
Nos	-8074
Soy	-8075
ité	-8076
▁Fe	-8077
▁Fo	-8078
acer	-8079
char	-8080
gage	-8081
idió	-8082
iron	-8083
ored	-8084
raba	-8085
▁Sam	-8086
▁abe	-8087
▁doy	-8088
▁pin	-8089
▁tos	-8090
iodía	-8091
ision	-8092
tairs	-8093
untos	-8094
▁Pasé	-8095
▁Sund	-8096
▁crec	-8097
▁hung	-8098
▁inqu	-8099
▁méto	-8100
▁prot	-8101
▁rend	-8102
▁tail	-8103
▁Speak	-8104
▁Susan	-8105
▁debía	-8106
▁plata	-8107
▁queen	-8108
▁upset	-8109
ómetros	-8110
▁Arabic	-8111
▁económ	-8112
▁fresco	-8113
▁griego	-8114
▁hambri	-8115
▁interv	-8116
▁nation	-8117
▁Sundays	-8118
▁esquina	-8119
▁license	-8120
▁manager	-8121
▁pedirle	-8122
▁players	-8123
▁produce	-8124
▁termina	-8125
▁tocando	-8126
▁workers	-8127
▁allergic	-8128
▁ejército	-8129
▁elección	-8130
▁keyboard	-8131
▁mediodía	-8132
▁Necesitas	-8133
▁committed	-8134
▁construir	-8135
▁costumbre	-8136
▁trabajadores	-8137
ix	-8138
fía	-8139
▁Cr	-8140
▁US	-8141
cing	-8142
emás	-8143
gram	-8144
vest	-8145
▁Bas	-8146
▁apr	-8147
▁mín	-8148
▁niñ	-8149
▁rot	-8150
▁tes	-8151
anded	-8152
ander	-8153
apers	-8154
itect	-8155
orrec	-8156
plane	-8157
ramos	-8158
▁Quer	-8159
▁abdu	-8160
▁asom	-8161
▁bajó	-8162
▁exch	-8163
▁gira	-8164
▁miel	-8165
▁push	-8166
▁rope	-8167
▁Egypt	-8168
▁aspir	-8169
▁chall	-8170
▁euros	-8171
▁explo	-8172
▁illeg	-8173
▁lower	-8174
▁podrá	-8175
▁value	-8176
▁Africa	-8177
▁aprove	-8178
▁atract	-8179
▁guests	-8180
▁lament	-8181
▁llaman	-8182
▁places	-8183
▁seldom	-8184
▁spends	-8185
plemente	-8186
▁corresp	-8187
▁decidir	-8188
▁escapar	-8189
▁excited	-8190
▁experim	-8191
▁falling	-8192
▁hacerse	-8193
▁llegará	-8194
▁mundial	-8195
▁perform	-8196
▁prepare	-8197
▁propios	-8198
▁ridicul	-8199
▁Although	-8200
▁bebiendo	-8201
▁cubierta	-8202
▁detalles	-8203
▁naranjas	-8204
▁particip	-8205
▁religion	-8206
▁contestar	-8207
▁dormitorio	-8208
▁complicated	-8209
▁disappeared	-8210
▁estadounidenses	-8211
So	-8212
ky	-8213
íz	-8214
▁Ma	-8215
ache	-8216
iega	-8217
oned	-8218
uete	-8219
unda	-8220
▁Fad	-8221
▁Med	-8222
▁jar	-8223
▁June	-8224
▁avan	-8225
▁herr	-8226
▁puse	-8227
▁riqu	-8228
ancias	-8229
▁Aquel	-8230
▁busca	-8231
▁envid	-8232
▁labor	-8233
▁solas	-8234
▁vacío	-8235
▁tantas	-8236
▁Neither	-8237
▁Perhaps	-8238
▁antigua	-8239
▁biggest	-8240
▁celular	-8241
▁cumplir	-8242
▁depress	-8243
▁estable	-8244
▁fábrica	-8245
▁involuc	-8246
▁lugares	-8247
▁pistola	-8248
▁smiling	-8249
▁teclado	-8250
▁stranger	-8251
▁verduras	-8252
▁Estábamos	-8253
▁enfermera	-8254
▁historias	-8255
▁interpret	-8256
▁saludable	-8257
▁difficulty	-8258
▁respuestas	-8259
▁yourselves	-8260
▁Normalmente	-8261
▁importantes	-8262
▁international	-8263
▁extremadamente	-8264
sc	-8265
ws	-8266
▁$	-8267
Des	-8268
leo	-8269
nam	-8270
zer	-8271
alax	-8272
telo	-8273
▁apl	-8274
▁lap	-8275
▁ove	-8276
▁tas	-8277
▁toy	-8278
iedad	-8279
ostro	-8280
▁Brit	-8281
▁Dejé	-8282
▁Imag	-8283
▁Prim	-8284
▁bull	-8285
▁emot	-8286
▁hole	-8287
▁lean	-8288
▁rabb	-8289
▁sill	-8290
▁solu	-8291
▁sost	-8292
▁suya	-8293
acción	-8294
iembre	-8295
▁Fadil	-8296
▁barba	-8297
▁bound	-8298
▁corte	-8299
▁débil	-8300
▁estup	-8301
▁falda	-8302
▁false	-8303
iéramos	-8304
▁estilo	-8305
▁motivo	-8306
▁salary	-8307
▁tantos	-8308
▁utiliz	-8309
▁Durante	-8310
▁Estaban	-8311
▁armario	-8312
▁coincid	-8313
▁novelas	-8314
▁patatas	-8315
▁querido	-8316
▁querría	-8317
▁password	-8318
▁abandonar	-8319
▁computers	-8320
▁descansar	-8321
▁Finalmente	-8322
▁compañeros	-8323
▁kilómetros	-8324
▁lentamente	-8325
▁electrónico	-8326
▁responsabilidad	-8327
Bu	-8328
oms	-8329
▁Da	-8330
bern	-8331
fica	-8332
itan	-8333
mate	-8334
quía	-8335
▁Mal	-8336
▁Use	-8337
▁Ver	-8338
▁lig	-8339
▁saf	-8340
▁tig	-8341
▁wit	-8342
itate	-8343
▁Qued	-8344
▁ahor	-8345
▁anda	-8346
▁carn	-8347
▁coma	-8348
▁copy	-8349
▁file	-8350
▁pasé	-8351
▁pupp	-8352
▁surf	-8353
▁vain	-8354
▁viva	-8355
ástico	-8356
ículos	-8357
▁alérg	-8358
▁bolso	-8359
▁china	-8360
▁demos	-8361
▁drugs	-8362
▁odian	-8363
▁regla	-8364
▁ricos	-8365
▁shame	-8366
▁sheep	-8367
ization	-8368
▁Ningún	-8369
▁Transl	-8370
▁assume	-8371
▁cigarr	-8372
▁fallen	-8373
▁favour	-8374
▁incred	-8375
▁instru	-8376
▁listos	-8377
▁mirada	-8378
▁simply	-8379
▁However	-8380
▁achieve	-8381
▁civiliz	-8382
▁crédito	-8383
▁escaped	-8384
▁fuertes	-8385
▁levanta	-8386
▁mejorar	-8387
▁process	-8388
▁suicide	-8389
▁useless	-8390
▁achieved	-8391
▁cometido	-8392
▁dentista	-8393
▁llegaron	-8394
▁político	-8395
▁recibido	-8396
▁recomend	-8397
▁difíciles	-8398
▁perfectly	-8399
▁political	-8400
▁tranquilo	-8401
▁abandonado	-8402
▁Simplemente	-8403
How	-8404
bia	-8405
cán	-8406
iel	-8407
jan	-8408
uko	-8409
▁Fl	-8410
▁Ra	-8411
Hola	-8412
Sabe	-8413
eted	-8414
onte	-8415
quer	-8416
▁Hic	-8417
▁leí	-8418
▁nav	-8419
▁océ	-8420
▁pig	-8421
▁wis	-8422
cionó	-8423
cular	-8424
jamos	-8425
tered	-8426
▁Char	-8427
▁cach	-8428
▁crít	-8429
▁dama	-8430
▁disf	-8431
▁disl	-8432
▁tool	-8433
▁Lleva	-8434
▁assum	-8435
▁autos	-8436
▁breve	-8437
▁subió	-8438
▁turno	-8439
▁woods	-8440
▁época	-8441
▁Llegué	-8442
▁bebida	-8443
▁chiste	-8444
▁colina	-8445
▁direct	-8446
▁gather	-8447
▁llueva	-8448
▁rostro	-8449
▁salida	-8450
ironment	-8451
▁ayudara	-8452
▁factory	-8453
▁musical	-8454
▁quality	-8455
▁razones	-8456
▁treated	-8457
itaciones	-8458
▁abandonó	-8459
▁poniendo	-8460
▁conocerte	-8461
▁descubrió	-8462
▁destroyed	-8463
▁fundament	-8464
▁recognize	-8465
▁Preferiría	-8466
▁refrigerator	-8467
ót	-8468
gió	-8469
ipa	-8470
mod	-8471
phy	-8472
▁Ho	-8473
▁Je	-8474
abet	-8475
esía	-8476
iros	-8477
lesc	-8478
ogle	-8479
umen	-8480
▁bul	-8481
▁hes	-8482
asons	-8483
ecido	-8484
iforn	-8485
inary	-8486
olded	-8487
ífico	-8488
▁Send	-8489
▁Vive	-8490
▁aliv	-8491
▁desv	-8492
▁diec	-8493
▁leyó	-8494
▁loca	-8495
▁olor	-8496
▁rued	-8497
▁webs	-8498
▁whis	-8499
▁Sigue	-8500
▁While	-8501
▁abraz	-8502
▁apell	-8503
▁avent	-8504
▁badly	-8505
▁bomba	-8506
▁cheek	-8507
▁junio	-8508
▁lemon	-8509
▁logró	-8510
▁refug	-8511
▁rosas	-8512
ifornia	-8513
▁acceso	-8514
▁action	-8515
▁confes	-8516
▁espero	-8517
▁handed	-8518
▁metros	-8519
▁tamaño	-8520
▁Bienven	-8521
▁Twitter	-8522
▁consigo	-8523
▁consult	-8524
▁crossed	-8525
▁esperan	-8526
▁fluidez	-8527
▁kilomet	-8528
▁miembro	-8529
▁nombres	-8530
▁paquete	-8531
▁reasons	-8532
▁silence	-8533
▁consists	-8534
▁justicia	-8535
▁posición	-8536
▁quedaron	-8537
▁remained	-8538
▁software	-8539
▁Argentina	-8540
▁americano	-8541
▁caballero	-8542
▁humanidad	-8543
▁California	-8544
alu	-8545
bum	-8546
ota	-8547
▁Ca	-8548
irió	-8549
udas	-8550
wise	-8551
▁App	-8552
▁Dem	-8553
▁Jan	-8554
anced	-8555
anged	-8556
earch	-8557
usias	-8558
▁Alex	-8559
▁Haré	-8560
▁Scot	-8561
▁carb	-8562
▁conc	-8563
▁fiel	-8564
▁pegó	-8565
▁pity	-8566
▁sánd	-8567
▁tecn	-8568
enario	-8569
▁Hurry	-8570
▁arrog	-8571
▁banda	-8572
▁bello	-8573
▁datos	-8574
▁force	-8575
▁issue	-8576
▁razon	-8577
▁sabor	-8578
▁vivió	-8579
iciales	-8580
▁absurd	-8581
▁aceptó	-8582
▁agrada	-8583
▁amount	-8584
▁congel	-8585
▁consol	-8586
▁cortar	-8587
▁depart	-8588
▁desert	-8589
▁hoping	-8590
▁humans	-8591
▁hábito	-8592
▁lesson	-8593
▁pesado	-8594
▁planta	-8595
▁slight	-8596
▁sombra	-8597
▁antiguo	-8598
▁atraves	-8599
▁citizen	-8600
▁climbed	-8601
▁ponerse	-8602
▁progres	-8603
▁trabajó	-8604
▁uniform	-8605
▁confused	-8606
▁contrase	-8607
▁mentiras	-8608
▁requiere	-8609
▁ayudarnos	-8610
▁dispuesto	-8611
▁necesitar	-8612
▁appointment	-8613
▁environment	-8614
▁maravilloso	-8615
zz	-8616
azo	-8617
chi	-8618
lev	-8619
cera	-8620
erry	-8621
fair	-8622
leto	-8623
para	-8624
ulas	-8625
▁Trá	-8626
▁bru	-8627
alent	-8628
anted	-8629
idays	-8630
imate	-8631
peare	-8632
▁Nací	-8633
▁Swed	-8634
▁apun	-8635
▁cuyo	-8636
▁esco	-8637
▁huel	-8638
▁jugu	-8639
▁nons	-8640
▁noon	-8641
▁obst	-8642
▁repu	-8643
▁tomo	-8644
▁zona	-8645
▁área	-8646
atiemp	-8647
engers	-8648
ándome	-8649
▁facts	-8650
▁forty	-8651
▁metió	-8652
▁miser	-8653
▁patio	-8654
▁salva	-8655
▁suave	-8656
▁thick	-8657
▁amigas	-8658
▁arries	-8659
▁candid	-8660
▁eleven	-8661
▁horses	-8662
▁nación	-8663
▁plenty	-8664
▁tenéis	-8665
▁aspecto	-8666
▁blancas	-8667
▁dentist	-8668
▁insects	-8669
▁obtener	-8670
▁obvious	-8671
▁pareces	-8672
▁prestar	-8673
▁puertas	-8674
▁service	-8675
▁survive	-8676
▁comienza	-8677
▁desapare	-8678
▁estúpida	-8679
▁imaginar	-8680
▁invented	-8681
▁ocupados	-8682
▁superior	-8683
▁sándwich	-8684
▁bromeando	-8685
▁photograph	-8686
íp	-8687
chó	-8688
hor	-8689
bled	-8690
enth	-8691
ingü	-8692
isco	-8693
oked	-8694
oted	-8695
▁Pat	-8696
▁fox	-8697
▁scr	-8698
gando	-8699
éjame	-8700
údame	-8701
▁Cats	-8702
▁Comp	-8703
▁Tras	-8704
▁mast	-8705
▁sort	-8706
▁spar	-8707
▁víct	-8708
ativas	-8709
olveré	-8710
▁Close	-8711
▁Conoc	-8712
▁Money	-8713
▁apres	-8714
▁bordo	-8715
▁calma	-8716
▁milag	-8717
▁notas	-8718
▁poeta	-8719
▁salad	-8720
▁tough	-8721
▁towel	-8722
▁verla	-8723
▁veter	-8724
▁ángel	-8725
▁Pregún	-8726
▁Shakes	-8727
▁actuar	-8728
▁durmió	-8729
▁estaré	-8730
▁hambur	-8731
▁highly	-8732
▁instit	-8733
▁limpia	-8734
▁toalla	-8735
▁warned	-8736
▁África	-8737
▁British	-8738
▁appears	-8739
▁contado	-8740
▁demostr	-8741
▁economy	-8742
▁hacemos	-8743
▁muertos	-8744
▁quedaré	-8745
▁seguido	-8746
▁tuvimos	-8747
▁anterior	-8748
▁agreement	-8749
▁orgullosa	-8750
▁accomplish	-8751
▁Shakespeare	-8752
?!	-8753
cup	-8754
isy	-8755
iño	-8756
▁Er	-8757
ablo	-8758
abor	-8759
eler	-8760
idor	-8761
oura	-8762
▁bás	-8763
▁gig	-8764
▁lóg	-8765
▁pav	-8766
▁tat	-8767
Deber	-8768
alada	-8769
asing	-8770
entud	-8771
iante	-8772
irrel	-8773
using	-8774
▁Turk	-8775
▁bend	-8776
▁lion	-8777
▁mons	-8778
▁sink	-8779
▁terr	-8780
▁tocó	-8781
▁vaca	-8782
ential	-8783
áticos	-8784
▁Bible	-8785
▁Black	-8786
▁brief	-8787
▁candy	-8788
▁costa	-8789
▁diste	-8790
▁galax	-8791
▁hated	-8792
▁héroe	-8793
▁ocean	-8794
▁reads	-8795
▁scene	-8796
▁sells	-8797
▁sings	-8798
▁subir	-8799
▁whist	-8800
uventud	-8801
▁Termin	-8802
▁genius	-8803
▁llevan	-8804
▁pintar	-8805
▁pulled	-8806
▁rarely	-8807
▁salvar	-8808
▁subway	-8809
▁Smoking	-8810
▁afortun	-8811
▁billete	-8812
▁complex	-8813
▁hicimos	-8814
▁llamaré	-8815
▁percent	-8816
▁querían	-8817
▁seguros	-8818
▁tallest	-8819
▁airplane	-8820
▁concentr	-8821
▁invitado	-8822
▁wherever	-8823
▁Brazilian	-8824
▁averiguar	-8825
▁traveling	-8826
▁universal	-8827
▁calcetines	-8828
▁sospechoso	-8829
▁escondiendo	-8830
▁understanding	-8831
ét	-8832
ika	-8833
raw	-8834
athe	-8835
ders	-8836
iénd	-8837
plom	-8838
▁Cla	-8839
▁Doc	-8840
▁Jos	-8841
▁Sue	-8842
▁cae	-8843
▁cic	-8844
▁hem	-8845
▁sne	-8846
▁vit	-8847
iosos	-8848
▁Part	-8849
▁dust	-8850
▁fest	-8851
▁inex	-8852
▁laws	-8853
▁león	-8854
▁mono	-8855
▁míos	-8856
▁plat	-8857
▁usan	-8858
ección	-8859
▁Being	-8860
▁blank	-8861
▁colec	-8862
▁doors	-8863
▁irrit	-8864
▁locos	-8865
▁natur	-8866
▁speed	-8867
▁swear	-8868
▁ciento	-8869
▁cierra	-8870
▁cierta	-8871
▁cooked	-8872
▁defect	-8873
▁hombro	-8874
▁invitó	-8875
▁millas	-8876
▁ocurre	-8877
▁pasará	-8878
▁pelear	-8879
▁secund	-8880
▁sexual	-8881
▁square	-8882
▁actitud	-8883
▁adolesc	-8884
▁andando	-8885
▁contrat	-8886
▁curious	-8887
▁invitar	-8888
▁snowing	-8889
▁vistazo	-8890
▁changing	-8891
▁juventud	-8892
▁pequeñas	-8893
▁quedamos	-8894
▁brillante	-8895
▁cuidadoso	-8896
▁descubrir	-8897
▁despertar	-8898
▁fantasmas	-8899
▁gentleman	-8900
▁impuestos	-8901
▁newspapers	-8902
▁preparando	-8903
▁understands	-8904
▁investigación	-8905
ID	-8906
Mi	-8907
iñ	-8908
bow	-8909
cop	-8910
eco	-8911
ñor	-8912
anch	-8913
ecut	-8914
gada	-8915
ulos	-8916
▁caí	-8917
▁feo	-8918
▁pup	-8919
Where	-8920
iamos	-8921
ilado	-8922
istro	-8923
izing	-8924
jante	-8925
▁Dice	-8926
▁Kobe	-8927
▁More	-8928
▁alph	-8929
▁conj	-8930
▁cose	-8931
▁deaf	-8932
▁fals	-8933
▁gros	-8934
▁plát	-8935
ctores	-8936
itario	-8937
ucción	-8938
▁Emily	-8939
▁altos	-8940
▁beard	-8941
▁chill	-8942
▁chose	-8943
▁enorm	-8944
▁minor	-8945
▁moned	-8946
▁parts	-8947
▁pluma	-8948
▁style	-8949
▁tembl	-8950
▁triun	-8951
▁vidas	-8952
▁virus	-8953
iración	-8954
▁Google	-8955
▁Tomasa	-8956
▁battle	-8957
▁colors	-8958
▁excuse	-8959
▁fridge	-8960
▁harías	-8961
▁largas	-8962
▁online	-8963
▁puesta	-8964
▁repeat	-8965
▁solved	-8966
▁vengas	-8967
▁average	-8968
▁capitán	-8969
▁comprom	-8970
▁details	-8971
▁further	-8972
▁illegal	-8973
▁oranges	-8974
▁putting	-8975
▁regresó	-8976
▁remains	-8977
▁smaller	-8978
▁totally	-8979
▁various	-8980
▁volando	-8981
▁arrepent	-8982
▁despertó	-8983
▁fluently	-8984
▁importar	-8985
▁opposite	-8986
▁traveled	-8987
▁victoria	-8988
▁escuchado	-8989
▁solamente	-8990
▁comentarios	-8991
▁encontramos	-8992
ze	-8993
▁et	-8994
crib	-8995
lero	-8996
oles	-8997
roat	-8998
▁Bre	-8999
▁mix	-9000
▁pañ	-9001
iados	-9002
ésped	-9003
▁Bibl	-9004
▁Vend	-9005
▁elem	-9006
▁okay	-9007
▁sean	-9008
Hablas	-9009
▁Camin	-9010
▁Jesus	-9011
▁Roman	-9012
▁anger	-9013
▁dando	-9014
▁suger	-9015
▁tempt	-9016
▁Israel	-9017
▁azules	-9018
▁britán	-9019
▁bucket	-9020
▁calent	-9021
▁espect	-9022
▁habido	-9023
▁mintió	-9024
▁orejas	-9025
▁vienen	-9026
▁Turkish	-9027
▁Whoever	-9028
▁captain	-9029
▁muebles	-9030
▁passion	-9031
▁podamos	-9032
▁someday	-9033
▁tratado	-9034
▁trusted	-9035
▁vuelvas	-9036
▁Remember	-9037
▁Whatever	-9038
▁clientes	-9039
▁contiene	-9040
▁desierto	-9041
▁distract	-9042
▁evidence	-9043
▁francesa	-9044
▁hablamos	-9045
▁kindness	-9046
▁notebook	-9047
▁progress	-9048
▁pusieron	-9049
▁shoulder	-9050
▁survived	-9051
▁tuvieron	-9052
▁asesinato	-9053
▁disculpar	-9054
▁entendido	-9055
▁accidentes	-9056
▁equivocada	-9057
▁literatura	-9058
▁successful	-9059
▁imaginación	-9060
▁internacional	-9061
He	-9062
Rec	-9063
acy	-9064
iev	-9065
ips	-9066
▁Ed	-9067
▁Ir	-9068
▁Li	-9069
iada	-9070
llos	-9071
omos	-9072
oper	-9073
unch	-9074
óbal	-9075
▁Kab	-9076
▁Vay	-9077
▁alo	-9078
▁spl	-9079
estre	-9080
guida	-9081
uelos	-9082
usual	-9083
▁Segu	-9084
▁Stud	-9085
▁Toki	-9086
▁Tues	-9087
▁amas	-9088
▁barr	-9089
▁cero	-9090
▁flew	-9091
▁lobo	-9092
▁loss	-9093
▁mass	-9094
▁obey	-9095
▁tomé	-9096
riente	-9097
▁Gener	-9098
▁Picas	-9099
▁colon	-9100
▁falle	-9101
▁marip	-9102
▁negra	-9103
▁owner	-9104
▁papas	-9105
▁pesad	-9106
▁reply	-9107
▁shows	-9108
▁torre	-9109
▁trick	-9110
▁trozo	-9111
▁acknow	-9112
▁calles	-9113
▁cambia	-9114
▁descub	-9115
▁equipa	-9116
▁gloves	-9117
▁granja	-9118
▁ingred	-9119
▁joking	-9120
▁martes	-9121
▁mental	-9122
▁photos	-9123
▁repent	-9124
▁strang	-9125
▁Vivimos	-9126
▁concern	-9127
▁elected	-9128
▁hubiese	-9129
▁tickets	-9130
▁towards	-9131
▁annoying	-9132
▁contract	-9133
▁dinosaur	-9134
▁extraord	-9135
▁hubieras	-9136
▁punished	-9137
▁sencillo	-9138
▁Cualquier	-9139
▁demasiada	-9140
▁disculpas	-9141
▁emergency	-9142
▁pasatiemp	-9143
▁productos	-9144
▁recommend	-9145
▁succeeded	-9146
▁transport	-9147
▁disponible	-9148
▁inevitable	-9149
▁invitación	-9150
▁levantarse	-9151
▁passengers	-9152
▁ridiculous	-9153
éñ	-9154
alt	-9155
iew	-9156
rad	-9157
yes	-9158
énd	-9159
anes	-9160
ateg	-9161
guen	-9162
icha	-9163
icip	-9164
vely	-9165
▁Cho	-9166
▁unh	-9167
adays	-9168
iting	-9169
itivo	-9170
llate	-9171
▁Dudo	-9172
▁Yoko	-9173
▁abur	-9174
▁dile	-9175
▁drag	-9176
▁lamp	-9177
▁paga	-9178
▁pure	-9179
▁sque	-9180
▁zumo	-9181
asteis	-9182
ificar	-9183
ighter	-9184
▁Drink	-9185
▁acaso	-9186
▁admir	-9187
▁apret	-9188
▁awful	-9189
▁cabra	-9190
▁carga	-9191
▁dirig	-9192
▁dueño	-9193
▁genio	-9194
▁indif	-9195
▁leyes	-9196
▁monte	-9197
▁sched	-9198
▁straw	-9199
▁sword	-9200
▁trece	-9201
glasses	-9202
▁Biblia	-9203
▁alegre	-9204
▁asombr	-9205
▁ataque	-9206
▁buried	-9207
▁cómodo	-9208
▁desgra	-9209
▁escena	-9210
▁montar	-9211
▁novels	-9212
▁polite	-9213
▁prices	-9214
▁ruined	-9215
▁screen	-9216
▁stands	-9217
istopher	-9218
▁Pensaba	-9219
▁admitir	-9220
▁aquello	-9221
▁cleaned	-9222
▁guantes	-9223
▁herrami	-9224
▁intento	-9225
▁journal	-9226
▁juguete	-9227
▁knowing	-9228
▁lección	-9229
▁muestra	-9230
▁queréis	-9231
▁salario	-9232
▁amarillo	-9233
▁contrato	-9234
▁hablante	-9235
▁incorrec	-9236
▁bilingual	-9237
▁continued	-9238
▁enseguida	-9239
▁intention	-9240
▁contraseña	-9241
▁fotografía	-9242
▁kilometers	-9243
▁periódicos	-9244
▁permission	-9245
▁maravillosa	-9246
▁preguntarle	-9247
▁departamento	-9248
▁inteligentes	-9249
▁perfectamente	-9250
).	-9251
ki	-9252
ym	-9253
év	-9254
Are	-9255
Cre	-9256
cks	-9257
ecta	-9258
enso	-9259
ezas	-9260
stit	-9261
▁Ase	-9262
▁Meg	-9263
▁jer	-9264
▁raw	-9265
▁ron	-9266
▁tér	-9267
▁uns	-9268
Vamos	-9269
culos	-9270
icles	-9271
uelto	-9272
ético	-9273
▁Resp	-9274
▁Sing	-9275
▁Tres	-9276
▁Vale	-9277
▁bras	-9278
▁clás	-9279
▁core	-9280
▁dial	-9281
▁elim	-9282
▁euro	-9283
▁nuts	-9284
▁quiz	-9285
▁sano	-9286
▁seme	-9287
▁trae	-9288
▁wide	-9289
Estáis	-9290
atería	-9291
inario	-9292
▁Hazlo	-9293
▁Music	-9294
▁Tanto	-9295
▁admin	-9296
▁apagó	-9297
▁bebió	-9298
▁benef	-9299
▁calur	-9300
▁drove	-9301
▁envió	-9302
▁flash	-9303
▁hopes	-9304
▁muere	-9305
▁rojas	-9306
▁screw	-9307
▁shelf	-9308
▁sonre	-9309
▁usado	-9310
▁Cierra	-9311
▁assist	-9312
▁closer	-9313
▁compra	-9314
▁conten	-9315
▁empeor	-9316
▁entera	-9317
▁larger	-9318
▁lately	-9319
▁parano	-9320
▁toques	-9321
▁tímido	-9322
▁Parecía	-9323
▁Picasso	-9324
▁Sabemos	-9325
▁anciana	-9326
▁asuntos	-9327
▁challen	-9328
▁elegido	-9329
▁enfrent	-9330
▁inventó	-9331
▁nadando	-9332
▁ofreció	-9333
▁riqueza	-9334
▁tendrás	-9335
Realmente	-9336
▁Vosotros	-9337
▁acciones	-9338
▁accommod	-9339
▁accompan	-9340
▁apellido	-9341
▁contribu	-9342
▁desconoc	-9343
▁desperté	-9344
▁ensalada	-9345
▁equipaje	-9346
▁hermosas	-9347
▁infancia	-9348
▁musician	-9349
▁preparar	-9350
▁producto	-9351
▁regresar	-9352
▁saliendo	-9353
▁thoughts	-9354
▁trabajan	-9355
▁traicion	-9356
▁valiente	-9357
▁Cristóbal	-9358
▁compañero	-9359
▁conocemos	-9360
▁constante	-9361
▁intentado	-9362
▁suggested	-9363
▁attractive	-9364
▁curiosidad	-9365
▁preguntaba	-9366
▁tecnología	-9367
▁electricity	-9368
▁dificultades	-9369
ayo	-9370
des	-9371
ipe	-9372
▁Bl	-9373
▁Mt	-9374
Mira	-9375
ield	-9376
ieto	-9377
osen	-9378
▁Adm	-9379
▁Ahí	-9380
▁Min	-9381
▁Nep	-9382
▁anx	-9383
▁foc	-9384
▁sug	-9385
▁tim	-9386
cious	-9387
enced	-9388
enten	-9389
mates	-9390
wards	-9391
yeron	-9392
▁Cond	-9393
▁Cook	-9394
▁bebo	-9395
▁bote	-9396
▁emba	-9397
▁exit	-9398
▁fant	-9399
▁pesa	-9400
▁rate	-9401
▁tens	-9402
▁vano	-9403
ateful	-9404
orrect	-9405
▁April	-9406
▁Entre	-9407
▁Pablo	-9408
▁estén	-9409
▁lloró	-9410
▁naive	-9411
▁shape	-9412
▁tales	-9413
▁turns	-9414
▁youth	-9415
uestras	-9416
▁Berlin	-9417
▁During	-9418
▁Guerra	-9419
▁acabar	-9420
▁aguant	-9421
▁arranc	-9422
▁conejo	-9423
▁confid	-9424
▁fright	-9425
▁fuente	-9426
▁músico	-9427
▁océano	-9428
▁propor	-9429
▁refuse	-9430
▁strict	-9431
▁suelen	-9432
▁supper	-9433
▁territ	-9434
▁violin	-9435
▁Intenta	-9436
▁Quédate	-9437
▁advance	-9438
▁ancient	-9439
▁ausente	-9440
▁capaces	-9441
▁climate	-9442
▁comport	-9443
▁conoció	-9444
▁opening	-9445
▁propias	-9446
▁Nuestros	-9447
▁alphabet	-9448
▁becoming	-9449
▁caracter	-9450
▁cinturón	-9451
▁describe	-9452
▁elephant	-9453
▁entregar	-9454
▁interpre	-9455
▁llamarme	-9456
▁nonsense	-9457
▁pleasant	-9458
▁exhausted	-9459
▁pasajeros	-9460
▁pronuncia	-9461
▁recognized	-9462
▁surrounded	-9463
▁Christopher	-9464
Ex	-9465
ko	-9466
erá	-9467
ham	-9468
mes	-9469
org	-9470
own	-9471
alos	-9472
berg	-9473
cesa	-9474
cómo	-9475
olar	-9476
vard	-9477
▁Dav	-9478
▁dil	-9479
▁fog	-9480
▁lám	-9481
▁rin	-9482
▁tum	-9483
gging	-9484
iders	-9485
▁Camb	-9486
▁Dogs	-9487
▁Judy	-9488
▁Mark	-9489
▁Yumi	-9490
▁apla	-9491
▁duró	-9492
▁goat	-9493
▁impa	-9494
▁menu	-9495
▁pink	-9496
▁sofa	-9497
▁task	-9498
▁trop	-9499
ración	-9500
▁South	-9501
▁abril	-9502
▁comas	-9503
▁decír	-9504
▁dudas	-9505
▁flies	-9506
▁llame	-9507
▁serás	-9508
▁trago	-9509
▁unlik	-9510
▁vacas	-9511
▁walks	-9512
ificado	-9513
▁Berlín	-9514
▁Colomb	-9515
▁Pregun	-9516
▁Things	-9517
▁captur	-9518
▁contag	-9519
▁coward	-9520
▁descon	-9521
▁drives	-9522
▁hierba	-9523
▁infant	-9524
▁poesía	-9525
▁polaco	-9526
▁puntos	-9527
▁regaló	-9528
▁sueldo	-9529
▁symbol	-9530
▁urgent	-9531
▁Austria	-9532
▁Harvard	-9533
▁acusado	-9534
▁agujero	-9535
▁assumed	-9536
▁batalla	-9537
▁casados	-9538
▁nuclear	-9539
▁ocultar	-9540
▁smarter	-9541
▁vendría	-9542
▁website	-9543
▁witness	-9544
▁audience	-9545
▁cleaning	-9546
▁elefante	-9547
▁exchange	-9548
▁gracioso	-9549
▁holidays	-9550
▁mistaken	-9551
▁mosquito	-9552
▁research	-9553
▁delicioso	-9554
▁volviendo	-9555
▁correspond	-9556
▁invitation	-9557
▁literature	-9558
▁serpientes	-9559
▁suspicious	-9560
▁medicamento	-9561
ef	-9562
ux	-9563
jud	-9564
ote	-9565
uél	-9566
▁cy	-9567
▁ep	-9568
alde	-9569
esas	-9570
ibly	-9571
ivas	-9572
izes	-9573
oven	-9574
tale	-9575
▁Ana	-9576
▁Atl	-9577
▁Beb	-9578
▁Env	-9579
▁máx	-9580
berto	-9581
cepto	-9582
cycle	-9583
known	-9584
ounds	-9585
thern	-9586
▁ahog	-9587
▁atas	-9588
▁depr	-9589
▁dign	-9590
▁seré	-9591
▁ways	-9592
▁ésta	-9593
Tienen	-9594
iertos	-9595
ástima	-9596
ística	-9597
▁Comen	-9598
▁Creía	-9599
▁couch	-9600
▁dedic	-9601
▁hagan	-9602
▁limit	-9603
▁motiv	-9604
▁noble	-9605
▁pagan	-9606
▁podés	-9607
▁sabio	-9608
▁shock	-9609
▁spell	-9610
▁sucia	-9611
▁uncom	-9612
▁Choose	-9613
▁Mayuko	-9614
▁acercó	-9615
▁diecis	-9616
▁espada	-9617
▁frutas	-9618
▁gritar	-9619
▁mínimo	-9620
▁rápida	-9621
▁sleeps	-9622
▁vienes	-9623
▁Tuesday	-9624
▁breathe	-9625
▁disfraz	-9626
▁estarás	-9627
▁knocked	-9628
▁nearest	-9629
▁piedras	-9630
▁extrater	-9631
▁powerful	-9632
▁pressure	-9633
▁ridículo	-9634
▁squirrel	-9635
▁visiting	-9636
▁abilities	-9637
▁cigarette	-9638
▁documento	-9639
▁jugadores	-9640
▁neighbour	-9641
▁tradition	-9642
▁motorcycle	-9643
▁movimiento	-9644
▁prohibited	-9645
▁politicians	-9646
▁electricidad	-9647
▁pensamientos	-9648
Is	-9649
uz	-9650
ako	-9651
een	-9652
moh	-9653
tea	-9654
utr	-9655
..."	-9656
emes	-9657
ezca	-9658
▁Aug	-9659
▁Din	-9660
▁Kar	-9661
▁cav	-9662
ading	-9663
iaron	-9664
izaje	-9665
raste	-9666
recio	-9667
áculo	-9668
▁Luna	-9669
▁Mund	-9670
▁Pona	-9671
▁Tomé	-9672
▁laid	-9673
▁ours	-9674
▁rely	-9675
▁spot	-9676
▁trem	-9677
▁wins	-9678
▁wolf	-9679
▁Ponte	-9680
▁Santa	-9681
▁Shall	-9682
▁afect	-9683
▁almoh	-9684
▁baile	-9685
▁based	-9686
▁conqu	-9687
▁delay	-9688
▁distr	-9689
▁estat	-9690
▁femin	-9691
▁fines	-9692
▁punta	-9693
▁serán	-9694
▁treas	-9695
▁wheel	-9696
▁aboard	-9697
▁advert	-9698
▁barrio	-9699
▁castig	-9700
▁causes	-9701
▁cepill	-9702
▁cinema	-9703
▁constr	-9704
▁deprim	-9705
▁descar	-9706
▁ghosts	-9707
▁ilegal	-9708
▁limpio	-9709
▁millón	-9710
▁oscure	-9711
▁piezas	-9712
▁unable	-9713
▁Mundial	-9714
▁admitió	-9715
▁alcalde	-9716
▁cercana	-9717
▁contrad	-9718
▁curtain	-9719
▁entendí	-9720
▁granted	-9721
▁haberse	-9722
▁holding	-9723
▁registr	-9724
▁tendría	-9725
ariamente	-9726
▁contains	-9727
▁entusias	-9728
▁escalera	-9729
▁grateful	-9730
▁perfecta	-9731
▁unlikely	-9732
▁desarroll	-9733
▁direction	-9734
▁muchísimo	-9735
▁eventually	-9736
▁desapareció	-9737
▁responsibility	-9738
▁aproximadamente	-9739
Sal	-9740
Why	-9741
uly	-9742
bage	-9743
enme	-9744
udos	-9745
▁Few	-9746
▁dañ	-9747
▁hún	-9748
▁jew	-9749
amelo	-9750
gress	-9751
moslo	-9752
oured	-9753
uesta	-9754
ítate	-9755
ítulo	-9756
▁Cent	-9757
▁Next	-9758
▁adiv	-9759
▁blew	-9760
▁chap	-9761
▁dios	-9762
▁duch	-9763
▁gris	-9764
▁guar	-9765
▁hues	-9766
▁menú	-9767
▁peel	-9768
▁teme	-9769
▁uñas	-9770
atorio	-9771
▁apete	-9772
▁cerdo	-9773
▁digan	-9774
▁falso	-9775
▁flood	-9776
▁gritó	-9777
▁grown	-9778
▁lento	-9779
▁líder	-9780
▁pelea	-9781
▁roses	-9782
▁skill	-9783
▁south	-9784
▁tipos	-9785
▁vivos	-9786
arently	-9787
▁Contin	-9788
▁Doctor	-9789
▁School	-9790
▁alarma	-9791
▁beings	-9792
▁desire	-9793
▁fought	-9794
▁fueras	-9795
▁horror	-9796
▁meters	-9797
▁pasear	-9798
▁punish	-9799
▁sabías	-9800
alloween	-9801
osamente	-9802
▁decirlo	-9803
▁degrees	-9804
▁dreamed	-9805
▁escribí	-9806
▁growing	-9807
▁haberle	-9808
▁located	-9809
▁reprodu	-9810
▁suppose	-9811
ificación	-9812
▁Nosotras	-9813
▁attitude	-9814
▁cansados	-9815
▁interior	-9816
▁levantar	-9817
▁presence	-9818
▁princesa	-9819
▁register	-9820
▁depressed	-9821
▁enamorada	-9822
▁suffering	-9823
▁tentación	-9824
▁científico	-9825
▁elecciones	-9826
▁extranjera	-9827
▁importance	-9828
'.	-9829
Say	-9830
Ves	-9831
exp	-9832
nad	-9833
rip	-9834
usc	-9835
ague	-9836
anna	-9837
icer	-9838
inct	-9839
ipto	-9840
uría	-9841
writ	-9842
éter	-9843
▁Ant	-9844
▁Leí	-9845
▁jab	-9846
▁led	-9847
▁leo	-9848
▁nap	-9849
▁nin	-9850
▁rug	-9851
▁unc	-9852
actor	-9853
róleo	-9854
▁Fuck	-9855
▁Sent	-9856
▁data	-9857
▁echo	-9858
▁gate	-9859
▁hoja	-9860
▁link	-9861
▁mart	-9862
▁osos	-9863
▁quar	-9864
▁trap	-9865
▁víde	-9866
antado	-9867
ington	-9868
ríamos	-9869
▁Beeth	-9870
▁North	-9871
▁Tenés	-9872
▁bears	-9873
▁burst	-9874
▁disgu	-9875
▁fatal	-9876
▁lados	-9877
▁pasta	-9878
▁podré	-9879
▁poems	-9880
▁sepas	-9881
▁wings	-9882
▁Almost	-9883
▁Hablar	-9884
▁Mennad	-9885
▁Olvidé	-9886
▁acción	-9887
▁agarró	-9888
▁altura	-9889
▁conect	-9890
▁dejaré	-9891
▁estall	-9892
▁expert	-9893
▁hidden	-9894
▁kicked	-9895
▁laptop	-9896
▁lasted	-9897
▁moneda	-9898
▁orders	-9899
▁pagado	-9900
▁siesta	-9901
▁skiing	-9902
▁stones	-9903
▁switch	-9904
▁tendré	-9905
▁throat	-9906
▁vengan	-9907
▁verdes	-9908
▁Aprendí	-9909
▁Llámame	-9910
▁cheaper	-9911
▁cometió	-9912
▁cuentas	-9913
▁deliver	-9914
▁escucho	-9915
▁estupid	-9916
▁resulta	-9917
▁scratch	-9918
▁winning	-9919
▁aprendió	-9920
▁asustado	-9921
▁efectivo	-9922
▁election	-9923
▁enfadada	-9924
▁llegamos	-9925
▁petróleo	-9926
▁Beethoven	-9927
▁Halloween	-9928
▁alimentos	-9929
▁ciudadano	-9930
▁continuar	-9931
▁decepcion	-9932
▁impresión	-9933
▁reconocer	-9934
▁basketball	-9935
▁accompanied	-9936
▁embarrassed	-9937
▁fundamental	-9938
To	-9939
cta	-9940
via	-9941
vol	-9942
▁ge	-9943
▁iP	-9944
adow	-9945
aras	-9946
cida	-9947
etro	-9948
icóp	-9949
igor	-9950
iler	-9951
soci	-9952
utch	-9953
▁Gal	-9954
▁Mer	-9955
▁aim	-9956
▁tit	-9957
▁vul	-9958
▁ést	-9959
aches	-9960
ierte	-9961
izada	-9962
trame	-9963
▁Apar	-9964
▁Ever	-9965
▁Expl	-9966
▁Lucy	-9967
▁gray	-9968
▁orde	-9969
▁sald	-9970
▁worn	-9971
▁zana	-9972
atures	-9973
encial	-9974
iduría	-9975
állate	-9976
▁Grand	-9977
▁Jesús	-9978
▁Trata	-9979
▁Venga	-9980
▁added	-9981
▁apply	-9982
▁argue	-9983
▁atras	-9984
▁fecha	-9985
▁hello	-9986
▁moral	-9987
▁stink	-9988
▁sucio	-9989
▁votar	-9990
uvieron	-9991
▁Decidí	-9992
▁Egipto	-9993
▁Korean	-9994
▁bitter	-9995
▁create	-9996
▁cuader	-9997
▁debate	-9998
▁derram	-9999
▁female	-10000
▁grados	-10001
▁locura	-10002
▁región	-10003
▁source	-10004
▁tejado	-10005
▁tesoro	-10006
standing	-10007
ucciones	-10008
▁arguing	-10009
▁brasile	-10010
▁butterf	-10011
▁cerrado	-10012
▁conduce	-10013
▁current	-10014
▁develop	-10015
▁disparó	-10016
▁disturb	-10017
▁divided	-10018
▁drawing	-10019
▁fashion	-10020
▁fuerzas	-10021
▁gerente	-10022
▁haremos	-10023
▁militar	-10024
▁molesto	-10025
▁mystery	-10026
▁ocurrir	-10027
▁practic	-10028
▁prision	-10029
▁pudimos	-10030
▁páginas	-10031
▁removed	-10032
▁sentada	-10033
▁species	-10034
▁tablero	-10035
▁urgente	-10036
▁volunte	-10037
▁betrayed	-10038
▁bleeding	-10039
▁borrowed	-10040
▁deserves	-10041
▁devolver	-10042
▁esperado	-10043
▁fantasma	-10044
▁increase	-10045
▁misterio	-10046
▁talented	-10047
▁Hungarian	-10048
▁podríamos	-10049
▁preferido	-10050
▁sabiduría	-10051
▁agradecido	-10052
▁apariencia	-10053
▁convencido	-10054
▁definitely	-10055
▁importaría	-10056
▁intentarlo	-10057
▁sunglasses	-10058
▁technology	-10059
▁avergonzado	-10060
ód	-10061
Gra	-10062
Las	-10063
ift	-10064
atul	-10065
cada	-10066
coln	-10067
cula	-10068
inco	-10069
laro	-10070
onas	-10071
orea	-10072
pera	-10073
ribo	-10074
▁Bir	-10075
▁Lan	-10076
▁afe	-10077
▁tip	-10078
▁vea	-10079
Sayib	-10080
arías	-10081
barde	-10082
iales	-10083
inter	-10084
right	-10085
íritu	-10086
▁Aseg	-10087
▁drew	-10088
▁forb	-10089
▁humo	-10090
▁jobs	-10091
▁mald	-10092
▁pagó	-10093
▁pale	-10094
▁pros	-10095
▁quis	-10096
▁role	-10097
▁sake	-10098
▁sore	-10099
emesio	-10100
tained	-10101
▁Check	-10102
▁Desaf	-10103
▁Frank	-10104
▁Pedro	-10105
▁cares	-10106
▁causó	-10107
▁conmo	-10108
▁frecu	-10109
▁lines	-10110
▁malos	-10111
▁manif	-10112
▁noisy	-10113
▁obras	-10114
▁retir	-10115
▁snake	-10116
▁strug	-10117
▁terms	-10118
▁trato	-10119
Gracias	-10120
osición	-10121
restres	-10122
▁Empecé	-10123
▁Recibí	-10124
▁Sudden	-10125
▁acting	-10126
▁behave	-10127
▁cuento	-10128
▁dejara	-10129
▁diplom	-10130
▁exists	-10131
▁exting	-10132
▁filoso	-10133
▁heaven	-10134
▁juegan	-10135
▁poemas	-10136
▁refres	-10137
▁robbed	-10138
▁suéter	-10139
▁uncomf	-10140
▁Lincoln	-10141
▁Nemesio	-10142
▁asistir	-10143
▁cambios	-10144
▁concept	-10145
▁consist	-10146
▁kidding	-10147
▁levanté	-10148
▁mantuvo	-10149
▁prevent	-10150
▁touched	-10151
▁ventaja	-10152
▁gasolina	-10153
▁occurred	-10154
▁ocurrido	-10155
▁repaired	-10156
▁utilizar	-10157
▁vinieron	-10158
▁President	-10159
▁compartir	-10160
▁concerned	-10161
▁escenario	-10162
▁estudiado	-10163
▁impressed	-10164
▁serpiente	-10165
▁democracia	-10166
▁dificultad	-10167
▁emergencia	-10168
▁pasatiempo	-10169
▁temptation	-10170
▁científicos	-10171
▁imagination	-10172
▁possibility	-10173
▁consciousness	-10174
▁uncomfortable	-10175
yl	-10176
cla	-10177
cra	-10178
fto	-10179
van	-10180
etic	-10181
isas	-10182
olic	-10183
pero	-10184
zoso	-10185
▁Cer	-10186
▁Mac	-10187
▁Obv	-10188
▁gal	-10189
▁sax	-10190
blado	-10191
itzer	-10192
ombra	-10193
▁Work	-10194
▁afir	-10195
▁bald	-10196
▁banc	-10197
▁bush	-10198
▁cock	-10199
▁creó	-10200
▁dele	-10201
▁exag	-10202
▁excl	-10203
▁fron	-10204
▁host	-10205
▁pand	-10206
▁pear	-10207
▁rind	-10208
▁risa	-10209
▁tiró	-10210
▁vela	-10211
▁Learn	-10212
▁Vimos	-10213
▁apoyo	-10214
▁atrop	-10215
▁campe	-10216
▁caído	-10217
▁cheer	-10218
▁devil	-10219
▁ditch	-10220
▁kilos	-10221
▁logro	-10222
▁plate	-10223
▁puppy	-10224
▁román	-10225
▁sangu	-10226
▁silly	-10227
▁sushi	-10228
▁truly	-10229
▁walls	-10230
▁Robert	-10231
▁accoun	-10232
▁adónde	-10233
▁cooper	-10234
▁detect	-10235
▁hierro	-10236
▁iremos	-10237
▁leader	-10238
▁mandar	-10239
▁mismas	-10240
▁pongas	-10241
▁provid	-10242
▁wishes	-10243
Entonces	-10244
ological	-10245
▁Primero	-10246
▁Switzer	-10247
▁aprende	-10248
▁aumento	-10249
▁combust	-10250
▁desnudo	-10251
▁medical	-10252
▁nervios	-10253
▁physics	-10254
▁reserva	-10255
▁selling	-10256
▁shorter	-10257
▁Colombia	-10258
▁Suddenly	-10259
▁contener	-10260
▁desesper	-10261
▁prefiero	-10262
▁princess	-10263
▁promises	-10264
▁speakers	-10265
▁thirteen	-10266
▁accompany	-10267
▁complicado	-10268
▁Switzerland	-10269
▁conferencia	-10270
▁independent	-10271
Ay	-10272
Un	-10273
Va	-10274
cn	-10275
fl	-10276
iw	-10277
ég	-10278
Ven	-10279
ole	-10280
ums	-10281
▁Sc	-10282
amen	-10283
blic	-10284
icop	-10285
inna	-10286
lect	-10287
lict	-10288
ples	-10289
rita	-10290
▁Bud	-10291
▁Buy	-10292
▁Gan	-10293
▁Sci	-10294
▁Sit	-10295
▁Van	-10296
▁fol	-10297
▁jub	-10298
▁jur	-10299
▁sow	-10300
▁tac	-10301
arily	-10302
ganta	-10303
inada	-10304
inate	-10305
ácter	-10306
álido	-10307
▁Dorm	-10308
▁Perm	-10309
▁Sois	-10310
▁Volv	-10311
▁alas	-10312
▁ampl	-10313
▁bici	-10314
▁grad	-10315
▁masa	-10316
▁pray	-10317
▁reve	-10318
▁sail	-10319
onente	-10320
uviste	-10321
ándote	-10322
▁Jones	-10323
▁Llegó	-10324
▁Traté	-10325
▁coloc	-10326
▁desea	-10327
▁freez	-10328
▁frequ	-10329
▁gifts	-10330
▁incom	-10331
▁lefto	-10332
▁pinta	-10333
▁sonar	-10334
berries	-10335
▁aliens	-10336
▁announ	-10337
▁boleto	-10338
▁circun	-10339
▁efecto	-10340
▁frustr	-10341
▁gustas	-10342
▁handle	-10343
▁higher	-10344
▁método	-10345
▁origen	-10346
▁rabbit	-10347
▁saving	-10348
▁tareas	-10349
▁vernos	-10350
▁January	-10351
▁Taninna	-10352
▁Volveré	-10353
▁aliento	-10354
▁ayudará	-10355
▁batería	-10356
▁blancos	-10357
▁cercano	-10358
▁cobarde	-10359
▁dejaron	-10360
▁finding	-10361
▁gallina	-10362
▁helicop	-10363
▁lectura	-10364
▁nowhere	-10365
▁streets	-10366
▁Entiendo	-10367
▁atrapado	-10368
▁attended	-10369
▁carácter	-10370
▁crossing	-10371
▁visitado	-10372
▁community	-10373
▁convenció	-10374
▁despierta	-10375
▁expresión	-10376
▁instituto	-10377
▁levantado	-10378
▁appearance	-10379
▁claramente	-10380
▁participar	-10381
▁distinguish	-10382
▁encontraron	-10383
▁encontraste	-10384
▁decepcionado	-10385
▁enfermedades	-10386
uñ	-10387
Les	-10388
Pre	-10389
ija	-10390
pod	-10391
var	-10392
▁-¿	-10393
▁Ev	-10394
adme	-10395
arsh	-10396
cara	-10397
rase	-10398
rían	-10399
ship	-10400
tage	-10401
teme	-10402
▁Str	-10403
▁Via	-10404
▁typ	-10405
▁usu	-10406
Nunca	-10407
Tenés	-10408
arias	-10409
ometo	-10410
onent	-10411
▁Play	-10412
▁Year	-10413
▁cima	-10414
▁exám	-10415
▁fake	-10416
▁fart	-10417
▁fila	-10418
▁guía	-10419
▁iría	-10420
▁junk	-10421
▁moch	-10422
▁nutr	-10423
▁pelu	-10424
▁tent	-10425
Recuer	-10426
celona	-10427
isible	-10428
▁Guard	-10429
▁Murió	-10430
▁Suiza	-10431
▁acted	-10432
▁bench	-10433
▁creas	-10434
▁daily	-10435
▁hijas	-10436
▁hired	-10437
▁numer	-10438
▁pasan	-10439
▁salón	-10440
▁unexp	-10441
▁vitam	-10442
▁zorro	-10443
▁Anyone	-10444
▁Mantén	-10445
▁anyway	-10446
▁aparte	-10447
▁bebido	-10448
▁collar	-10449
▁height	-10450
▁miraba	-10451
▁muerta	-10452
▁priest	-10453
▁snakes	-10454
▁spirit	-10455
▁traído	-10456
▁viajes	-10457
▁ceiling	-10458
▁divorce	-10459
▁gustado	-10460
▁lástima	-10461
▁monstru	-10462
▁partida	-10463
▁química	-10464
▁aburrida	-10465
▁almohada	-10466
▁extraños	-10467
▁garganta	-10468
▁licencia	-10469
▁momentos	-10470
▁pantalla	-10471
▁peligros	-10472
▁stealing	-10473
▁Barcelona	-10474
▁accidents	-10475
▁trabajaba	-10476
▁zoológico	-10477
▁Washington	-10478
▁remembered	-10479
▁considerado	-10480
▁accomplished	-10481
dr	-10482
Don	-10483
cón	-10484
ung	-10485
xic	-10486
asts	-10487
cipe	-10488
garo	-10489
gled	-10490
pued	-10491
usas	-10492
usos	-10493
▁Dar	-10494
▁Díg	-10495
▁Vos	-10496
▁bod	-10497
▁gim	-10498
▁mum	-10499
▁ner	-10500
▁sen	-10501
adero	-10502
alled	-10503
lands	-10504
mites	-10505
ouder	-10506
ígeno	-10507
▁Creí	-10508
▁Dale	-10509
▁Dije	-10510
▁Sién	-10511
▁arqu	-10512
▁cave	-10513
▁hire	-10514
▁mare	-10515
▁sexo	-10516
▁sole	-10517
▁supo	-10518
▁técn	-10519
▁visa	-10520
Tenéis	-10521
▁Hable	-10522
▁Norte	-10523
▁Señor	-10524
▁Tradu	-10525
▁adiós	-10526
▁civil	-10527
▁crear	-10528
▁dormí	-10529
▁gorda	-10530
▁hered	-10531
▁image	-10532
▁knock	-10533
▁obvio	-10534
▁occas	-10535
▁solid	-10536
▁taxes	-10537
oncesto	-10538
stances	-10539
▁Podéis	-10540
▁accord	-10541
▁actriz	-10542
▁admire	-10543
▁arañas	-10544
▁banana	-10545
▁calend	-10546
▁desmay	-10547
▁engord	-10548
▁esperó	-10549
▁interc	-10550
▁juzgar	-10551
▁letras	-10552
▁lovely	-10553
▁oldest	-10554
▁papers	-10555
▁pillow	-10556
▁region	-10557
▁unfair	-10558
▁venden	-10559
▁violín	-10560
▁actions	-10561
▁actress	-10562
▁adultos	-10563
▁asesino	-10564
▁becomes	-10565
▁burning	-10566
▁callado	-10567
▁comfort	-10568
▁divorci	-10569
▁esquiar	-10570
▁mochila	-10571
▁monedas	-10572
▁paredes	-10573
▁rechazó	-10574
▁relajar	-10575
▁vocabul	-10576
▁Aprender	-10577
▁ayudarle	-10578
▁deseando	-10579
▁exámenes	-10580
▁infierno	-10581
▁interrup	-10582
▁juguetes	-10583
▁prisoner	-10584
▁romantic	-10585
▁Esperamos	-10586
▁condición	-10587
▁daughters	-10588
▁detective	-10589
▁entiendes	-10590
▁favourite	-10591
▁practicar	-10592
▁prevented	-10593
▁pronounce	-10594
▁baloncesto	-10595
▁comentario	-10596
▁complained	-10597
▁levantarme	-10598
▁politician	-10599
▁convertirse	-10600
▁traducciones	-10601
ms	-10602
íc	-10603
úl	-10604
ker	-10605
mel	-10606
ulf	-10607
Vete	-10608
ilip	-10609
▁Big	-10610
▁Dev	-10611
▁Mrs	-10612
▁ord	-10613
Piens	-10614
Viste	-10615
abeto	-10616
ciona	-10617
denes	-10618
igues	-10619
onest	-10620
ursos	-10621
verty	-10622
zamos	-10623
▁Esco	-10624
▁Fuer	-10625
▁Hizo	-10626
▁cubr	-10627
▁deny	-10628
▁dime	-10629
▁duck	-10630
▁hers	-10631
▁liqu	-10632
▁muro	-10633
▁tied	-10634
▁Happy	-10635
▁adapt	-10636
▁adver	-10637
▁aprop	-10638
▁begun	-10639
▁brand	-10640
▁cases	-10641
▁elder	-10642
▁incid	-10643
▁mando	-10644
▁model	-10645
▁moves	-10646
▁pecho	-10647
▁quedo	-10648
▁reput	-10649
▁robar	-10650
▁stage	-10651
▁turco	-10652
▁vayan	-10653
▁veras	-10654
▁Quiere	-10655
▁advent	-10656
▁closet	-10657
▁double	-10658
▁doubts	-10659
▁establ	-10660
▁gatito	-10661
▁insane	-10662
▁mascul	-10663
▁mortal	-10664
▁ocurra	-10665
▁pierde	-10666
▁served	-10667
▁Despite	-10668
▁Univers	-10669
▁balance	-10670
▁battery	-10671
▁cheated	-10672
▁cuántos	-10673
▁enamoró	-10674
▁extingu	-10675
▁hacerle	-10676
▁journey	-10677
▁logrado	-10678
▁nevando	-10679
▁require	-10680
▁alfombra	-10681
▁amarilla	-10682
▁consiste	-10683
▁librería	-10684
▁llamando	-10685
▁profunda	-10686
▁práctica	-10687
▁schedule	-10688
▁challenge	-10689
▁empezaron	-10690
▁existence	-10691
▁filosofía	-10692
▁presencia	-10693
▁secretary	-10694
▁temporada	-10695
▁Pregúntale	-10696
▁amabilidad	-10697
▁decisiones	-10698
▁instructions	-10699
▁especialmente	-10700
▁instrucciones	-10701
▁recientemente	-10702
áf	-10703
atr	-10704
bur	-10705
igü	-10706
yas	-10707
Habl	-10708
gros	-10709
iche	-10710
itis	-10711
rows	-10712
tein	-10713
ygen	-10714
▁...	-10715
▁Dep	-10716
▁Hok	-10717
▁Lee	-10718
▁Pás	-10719
▁Tim	-10720
▁cír	-10721
▁fab	-10722
▁lid	-10723
▁tru	-10724
▁típ	-10725
adera	-10726
erved	-10727
teras	-10728
unció	-10729
urity	-10730
▁Cath	-10731
▁Gran	-10732
▁José	-10733
▁cebo	-10734
▁deje	-10735
▁eigh	-10736
▁empu	-10737
▁ocul	-10738
▁rare	-10739
▁rise	-10740
▁ruin	-10741
▁soap	-10742
acters	-10743
aturas	-10744
inated	-10745
éntame	-10746
▁David	-10747
▁Death	-10748
▁Hablé	-10749
▁Inter	-10750
▁alike	-10751
▁borde	-10752
▁cajas	-10753
▁casos	-10754
▁coins	-10755
▁debió	-10756
▁oídos	-10757
▁pesca	-10758
▁robot	-10759
▁salvó	-10760
▁sunny	-10761
▁yendo	-10762
Piensas	-10763
ription	-10764
vamente	-10765
▁Cookie	-10766
▁Seguro	-10767
▁Vuelve	-10768
▁active	-10769
▁alumno	-10770
▁circum	-10771
▁explor	-10772
▁extrañ	-10773
▁fingió	-10774
▁fluent	-10775
▁forbid	-10776
▁gained	-10777
▁garant	-10778
▁líneas	-10779
▁lógica	-10780
▁primos	-10781
▁reject	-10782
▁resour	-10783
▁signed	-10784
▁unique	-10785
▁vieron	-10786
▁wisdom	-10787
▁Estudio	-10788
▁claimed	-10789
▁command	-10790
▁consequ	-10791
▁doctors	-10792
▁ignored	-10793
▁impidió	-10794
▁incapaz	-10795
▁interro	-10796
▁liberty	-10797
▁llevará	-10798
▁ocasión	-10799
▁presión	-10800
▁seguida	-10801
▁sesenta	-10802
▁trapped	-10803
▁vayamos	-10804
▁victory	-10805
▁visible	-10806
▁volumen	-10807
▁adecuado	-10808
▁astronom	-10809
▁communic	-10810
▁conflict	-10811
▁despreci	-10812
▁divorced	-10813
▁majority	-10814
▁misunder	-10815
▁presents	-10816
▁promesas	-10817
▁pronunci	-10818
▁respirar	-10819
▁trabajos	-10820
▁Translate	-10821
▁confessed	-10822
▁desgracia	-10823
▁opiniones	-10824
▁otherwise	-10825
▁planeando	-10826
▁reconoció	-10827
▁characters	-10828
▁classmates	-10829
▁confidence	-10830
▁encantaría	-10831
▁encuentran	-10832
▁flashlight	-10833
▁translator	-10834
hu	-10835
ão	-10836
glo	-10837
pro	-10838
séñ	-10839
dote	-10840
grad	-10841
iber	-10842
ilia	-10843
ilio	-10844
jate	-10845
lied	-10846
pers	-10847
rope	-10848
sert	-10849
town	-10850
uits	-10851
átil	-10852
ísta	-10853
▁Sep	-10854
▁Wik	-10855
▁doc	-10856
▁pim	-10857
▁vom	-10858
anque	-10859
astre	-10860
jaron	-10861
venge	-10862
▁Comí	-10863
▁Febr	-10864
▁cord	-10865
▁corp	-10866
▁cruz	-10867
▁cure	-10868
▁impr	-10869
▁lips	-10870
▁mark	-10871
íncipe	-10872
▁Armen	-10873
▁Dutch	-10874
▁Hebre	-10875
▁Langu	-10876
▁basta	-10877
▁beans	-10878
▁court	-10879
▁diary	-10880
▁dilig	-10881
▁elect	-10882
▁entra	-10883
▁indic	-10884
▁infer	-10885
▁irnos	-10886
▁notes	-10887
▁ponga	-10888
▁seats	-10889
▁somet	-10890
▁tires	-10891
▁verle	-10892
▁villa	-10893
▁vives	-10894
▁Having	-10895
▁aprobó	-10896
▁autumn	-10897
▁brings	-10898
▁candle	-10899
▁chinos	-10900
▁confía	-10901
▁envelo	-10902
▁fastid	-10903
▁labios	-10904
▁postre	-10905
▁quedes	-10906
▁recién	-10907
▁remark	-10908
▁sabían	-10909
▁saltar	-10910
▁triunf	-10911
▁absurdo	-10912
▁cliente	-10913
▁comment	-10914
▁desperd	-10915
▁justice	-10916
▁lámpara	-10917
▁oxígeno	-10918
▁whoever	-10919
▁European	-10920
▁adorable	-10921
▁bilingüe	-10922
▁cocinero	-10923
▁contenta	-10924
▁mantiene	-10925
▁opciones	-10926
▁opponent	-10927
▁properly	-10928
▁quedando	-10929
▁sensible	-10930
▁sociales	-10931
▁treasure	-10932
▁architect	-10933
▁generally	-10934
▁sensación	-10935
▁collection	-10936
▁conditions	-10937
▁existencia	-10938
▁ignorancia	-10939
▁construcción	-10940
An	-10941
aw	-10942
ái	-10943
▁ó	-10944
box	-10945
fin	-10946
gor	-10947
icu	-10948
lav	-10949
ray	-10950
set	-10951
tee	-10952
yen	-10953
▁EE	-10954
▁II	-10955
▁Ur	-10956
amar	-10957
aran	-10958
arde	-10959
elig	-10960
gica	-10961
llen	-10962
orno	-10963
rada	-10964
▁Haw	-10965
▁Mod	-10966
▁Mor	-10967
▁Red	-10968
▁Sov	-10969
▁sop	-10970
▁wra	-10971
geles	-10972
ively	-10973
kaido	-10974
meros	-10975
▁Anna	-10976
▁Lisa	-10977
▁Mosc	-10978
▁Pass	-10979
▁Such	-10980
▁Vlad	-10981
▁abor	-10982
▁acad	-10983
▁agot	-10984
▁cura	-10985
▁daba	-10986
▁dejo	-10987
▁dobl	-10988
▁kick	-10989
▁mamí	-10990
▁mata	-10991
▁noct	-10992
▁pago	-10993
▁pona	-10994
▁rota	-10995
▁toys	-10996
▁yard	-10997
atives	-10998
ensión	-10999
árselo	-11000
▁Chile	-11001
▁Disfr	-11002
▁abras	-11003
▁autén	-11004
▁below	-11005
▁botas	-11006
▁cajón	-11007
▁camar	-11008
▁cantó	-11009
▁chest	-11010
▁creyó	-11011
▁demon	-11012
▁desag	-11013
▁hebre	-11014
▁hoped	-11015
▁limón	-11016
▁mezcl	-11017
▁negar	-11018
▁persp	-11019
▁pongo	-11020
▁quede	-11021
▁voted	-11022
▁vídeo	-11023
ificios	-11024
itation	-11025
▁Buenos	-11026
▁Disney	-11027
▁Empezó	-11028
▁Hebrew	-11029
▁Marika	-11030
▁Regres	-11031
▁Tanaka	-11032
▁abejas	-11033
▁bloque	-11034
▁cheque	-11035
▁corrup	-11036
▁cortas	-11037
▁frigor	-11038
▁garage	-11039
▁gobern	-11040
▁impact	-11041
▁improb	-11042
▁interf	-11043
▁libres	-11044
▁lograr	-11045
▁louder	-11046
▁marcha	-11047
▁marchó	-11048
▁normas	-11049
▁ordenó	-11050
▁pesada	-11051
▁strike	-11052
▁tercer	-11053
▁trenes	-11054
inamente	-11055
▁Central	-11056
▁Escribe	-11057
▁Escuché	-11058
▁Finland	-11059
▁Pasamos	-11060
▁Turquía	-11061
▁agotado	-11062
▁consecu	-11063
▁delight	-11064
▁dessert	-11065
▁distint	-11066
▁especie	-11067
▁función	-11068
▁helicóp	-11069
▁highest	-11070
▁ingenuo	-11071
▁llegues	-11072
▁moderna	-11073
▁package	-11074
▁pobreza	-11075
▁ponerme	-11076
▁privado	-11077
▁proceso	-11078
▁protest	-11079
▁provide	-11080
▁ratones	-11081
▁retraso	-11082
▁suicidó	-11083
▁turning	-11084
▁órdenes	-11085
▁Deberían	-11086
▁Hokkaido	-11087
▁charming	-11088
▁engineer	-11089
▁linterna	-11090
▁plástico	-11091
▁Francisco	-11092
▁asesinado	-11093
▁corriente	-11094
▁decisions	-11095
▁despedido	-11096
▁discussed	-11097
▁effective	-11098
▁estupidez	-11099
▁graduated	-11100
▁interrupt	-11101
▁recuerdos	-11102
▁religious	-11103
▁solicitud	-11104
▁aprendiste	-11105
▁documentos	-11106
▁esperanzas	-11107
▁periodista	-11108
▁aprendizaje	-11109
▁espectáculo	-11110
▁translations	-11111
cé	-11112
té	-11113
▁í	-11114
bon	-11115
cié	-11116
cía	-11117
esp	-11118
kin	-11119
kra	-11120
log	-11121
odr	-11122
oth	-11123
pho	-11124
▁DN	-11125
▁uv	-11126
anse	-11127
itmo	-11128
jaba	-11129
osta	-11130
▁Poc	-11131
▁Pok	-11132
▁luc	-11133
▁ple	-11134
▁ros	-11135
▁row	-11136
▁vag	-11137
▁vid	-11138
cando	-11139
ening	-11140
venir	-11141
énero	-11142
▁Ayud	-11143
▁Mand	-11144
▁Vine	-11145
▁Vino	-11146
▁cubo	-11147
▁dará	-11148
▁dism	-11149
▁exig	-11150
▁fama	-11151
▁mask	-11152
▁sees	-11153
▁shed	-11154
▁stub	-11155
▁teen	-11156
▁trib	-11157
▁uvas	-11158
▁vine	-11159
Cuánta	-11160
Pueden	-11161
edores	-11162
elling	-11163
ichael	-11164
icient	-11165
▁Sobre	-11166
▁Thurs	-11167
▁abdom	-11168
▁boots	-11169
▁boxes	-11170
▁copia	-11171
▁dejas	-11172
▁disag	-11173
▁ejemp	-11174
▁esfor	-11175
▁fuese	-11176
▁guide	-11177
▁llego	-11178
▁mires	-11179
▁north	-11180
▁pages	-11181
▁pride	-11182
▁rapid	-11183
▁react	-11184
▁regañ	-11185
▁rooms	-11186
▁sopor	-11187
▁sweat	-11188
▁temas	-11189
looking	-11190
osexual	-11191
▁Estuvo	-11192
▁Spring	-11193
▁alguno	-11194
▁confío	-11195
▁danced	-11196
▁deseos	-11197
▁echado	-11198
▁europe	-11199
▁indisp	-11200
▁jueves	-11201
▁modelo	-11202
▁negras	-11203
▁negros	-11204
▁olvide	-11205
▁podrás	-11206
▁proced	-11207
▁safety	-11208
▁sweets	-11209
▁traged	-11210
▁virtud	-11211
▁weapon	-11212
llamente	-11213
▁Vayamos	-11214
▁adopted	-11215
▁alcanzó	-11216
▁bonitas	-11217
▁chistes	-11218
▁confirm	-11219
▁cousins	-11220
▁digital	-11221
▁drowned	-11222
▁encoura	-11223
▁guardar	-11224
▁intoler	-11225
▁lottery	-11226
▁nocturn	-11227
▁numbers	-11228
▁orgullo	-11229
▁plastic	-11230
▁quienes	-11231
▁reparar	-11232
▁soldado	-11233
▁staring	-11234
▁unhappy	-11235
▁watches	-11236
▁weapons	-11237
▁abducted	-11238
▁alérgico	-11239
▁conjunto	-11240
▁familias	-11241
▁improved	-11242
▁muriendo	-11243
▁persuade	-11244
▁prefiere	-11245
▁products	-11246
▁secretos	-11247
▁segundos	-11248
▁sentarme	-11249
▁classical	-11250
▁construyó	-11251
▁controlar	-11252
▁gramática	-11253
▁semejante	-11254
▁sensitive	-11255
▁sonriendo	-11256
▁convertido	-11257
▁estuvieron	-11258
▁nuevamente	-11259
▁reputation	-11260
▁experimento	-11261
▁satisfactor	-11262
▁extraterrestres	-11263
Esc	-11264
ató	-11265
fas	-11266
the	-11267
usó	-11268
vem	-11269
ést	-11270
ínt	-11271
▁Án	-11272
apor	-11273
chan	-11274
coat	-11275
gery	-11276
imir	-11277
irty	-11278
ueba	-11279
uega	-11280
year	-11281
ñado	-11282
▁Sur	-11283
▁cod	-11284
▁gri	-11285
▁och	-11286
▁sót	-11287
Todos	-11288
asion	-11289
atory	-11290
estos	-11291
uelas	-11292
▁Dick	-11293
▁Find	-11294
▁Pues	-11295
▁cart	-11296
▁chim	-11297
▁dawn	-11298
▁debt	-11299
▁fren	-11300
▁fuma	-11301
▁knee	-11302
▁male	-11303
▁mamm	-11304
▁pala	-11305
▁puls	-11306
▁robo	-11307
▁tire	-11308
▁unic	-11309
▁vase	-11310
ciende	-11311
estern	-11312
ishing	-11313
issors	-11314
itales	-11315
▁Catal	-11316
▁Marie	-11317
▁aplic	-11318
▁coser	-11319
▁downs	-11320
▁falls	-11321
▁flour	-11322
▁frame	-11323
▁harsh	-11324
▁jeans	-11325
▁marca	-11326
▁maybe	-11327
▁micro	-11328
▁oeste	-11329
▁patas	-11330
▁simpl	-11331
▁spite	-11332
▁stops	-11333
▁twins	-11334
▁vasos	-11335
▁vigil	-11336
▁wheat	-11337
Ustedes	-11338
grafías	-11339
ologist	-11340
parents	-11341
éstrame	-11342
▁Debido	-11343
▁Llegar	-11344
▁Porque	-11345
▁Tenéis	-11346
▁bromas	-11347
▁chosen	-11348
▁compre	-11349
▁coraje	-11350
▁correg	-11351
▁duermo	-11352
▁excusa	-11353
▁former	-11354
▁hammer	-11355
▁latest	-11356
▁poetry	-11357
▁quejas	-11358
▁sienta	-11359
cionales	-11360
▁cosecha	-11361
▁diamond	-11362
▁fucking	-11363
▁garbage	-11364
▁heridas	-11365
▁lotería	-11366
▁mission	-11367
▁números	-11368
▁objetos	-11369
▁ochenta	-11370
▁oficial	-11371
▁pasamos	-11372
▁perfume	-11373
▁preparó	-11374
▁quarter	-11375
▁swallow	-11376
▁Learning	-11377
▁alfabeto	-11378
▁ancianos	-11379
▁cerrados	-11380
▁chemical	-11381
▁deshacer	-11382
▁envelope	-11383
▁expresar	-11384
▁festival	-11385
▁obedecer	-11386
▁official	-11387
▁stubborn	-11388
▁tengamos	-11389
▁cocinando	-11390
▁disfrutar	-11391
▁eléctrica	-11392
▁naturales	-11393
▁published	-11394
▁regularly	-11395
▁sentenced	-11396
▁americanos	-11397
▁constantly	-11398
▁discussion	-11399
▁especially	-11400
▁improbable	-11401
▁permanecer	-11402
▁secundaria	-11403
▁unexpected	-11404
▁alternativa	-11405
▁extranjeras	-11406
▁frigorífico	-11407
▁profesional	-11408
▁reservation	-11409
▁translating	-11410
▁comunicación	-11411
▁directamente	-11412
▁correctamente	-11413
▁independiente	-11414
Ch	-11415
ax	-11416
sí	-11417
▁x	-11418
edy	-11419
quí	-11420
wai	-11421
That	-11422
assy	-11423
cota	-11424
ilos	-11425
zcas	-11426
▁Add	-11427
▁Ama	-11428
▁Ben	-11429
▁Fum	-11430
▁Lad	-11431
▁Leo	-11432
▁Old	-11433
▁Sub	-11434
▁Sum	-11435
▁Vol	-11436
▁Wed	-11437
▁gro	-11438
▁mob	-11439
▁taz	-11440
Ahora	-11441
chief	-11442
ciéla	-11443
curso	-11444
house	-11445
iegos	-11446
istry	-11447
mbolo	-11448
ously	-11449
uestr	-11450
ánico	-11451
▁Mars	-11452
▁Ukra	-11453
▁anti	-11454
▁arco	-11455
▁asks	-11456
▁ease	-11457
▁lava	-11458
▁lind	-11459
▁pend	-11460
▁pozo	-11461
▁puta	-11462
▁puzz	-11463
▁repl	-11464
▁retr	-11465
▁slee	-11466
▁valu	-11467
ecemos	-11468
ession	-11469
icioso	-11470
inales	-11471
priate	-11472
▁Donde	-11473
▁Enséñ	-11474
▁James	-11475
▁Laura	-11476
▁Start	-11477
▁appet	-11478
▁aside	-11479
▁darse	-11480
▁depos	-11481
▁encer	-11482
▁hablé	-11483
▁postp	-11484
▁rainy	-11485
▁scare	-11486
▁volví	-11487
Debería	-11488
▁Muslim	-11489
▁Turkey	-11490
▁colect	-11491
▁creció	-11492
▁defeat	-11493
▁dioses	-11494
▁grapes	-11495
▁juicio	-11496
▁largos	-11497
▁matado	-11498
▁previs	-11499
▁pushed	-11500
▁rieron	-11501
▁shared	-11502
▁silver	-11503
▁stamps	-11504
▁stress	-11505
▁trains	-11506
▁transm	-11507
▁Cuidado	-11508
▁Ninguna	-11509
▁Podrías	-11510
▁abuelos	-11511
▁aguanto	-11512
▁ahorrar	-11513
▁atrapar	-11514
▁bottles	-11515
▁central	-11516
▁clásica	-11517
▁comiste	-11518
▁content	-11519
▁grabbed	-11520
▁húngaro	-11521
▁inesper	-11522
▁inglesa	-11523
▁lecture	-11524
▁levanto	-11525
▁mascota	-11526
▁materia	-11527
▁options	-11528
▁persist	-11529
▁planted	-11530
▁poquito	-11531
▁pruebas	-11532
▁reminds	-11533
▁secrets	-11534
▁selfish	-11535
▁superar	-11536
▁símbolo	-11537
▁tiendas	-11538
entamente	-11539
▁February	-11540
▁Vladimir	-11541
▁arriving	-11542
▁clothing	-11543
▁compared	-11544
▁consejos	-11545
▁cubierto	-11546
▁demanded	-11547
▁entrance	-11548
▁incident	-11549
▁murciéla	-11550
▁pidiendo	-11551
▁requires	-11552
▁Asegúrate	-11553
▁Tendremos	-11554
▁colección	-11555
▁comunidad	-11556
▁condenado	-11557
▁democracy	-11558
▁elefantes	-11559
▁estuviste	-11560
▁funcionar	-11561
▁influence	-11562
▁intercamb	-11563
▁interview	-11564
▁perdieron	-11565
▁razonable	-11566
▁renunciar	-11567
▁trabajado	-11568
▁apologized	-11569
▁arrepiento	-11570
▁introduced	-11571
▁nacimiento	-11572
▁philosophy	-11573
▁production	-11574
▁trabajador	-11575
▁fascinating	-11576
ju	-11577
▁Q	-11578
Ese	-11579
phe	-11580
▁Ag	-11581
▁Ze	-11582
▁hú	-11583
name	-11584
urie	-11585
vate	-11586
▁Cop	-11587
▁Llo	-11588
▁Pal	-11589
▁Rob	-11590
▁Sil	-11591
▁Vin	-11592
▁adj	-11593
▁ave	-11594
▁cac	-11595
▁hin	-11596
▁ríe	-11597
brero	-11598
cible	-11599
coles	-11600
gados	-11601
hetic	-11602
iseta	-11603
ormal	-11604
ómodo	-11605
▁Abre	-11606
▁Dese	-11607
▁Finn	-11608
▁Sara	-11609
▁Sigo	-11610
▁Tuvo	-11611
▁belt	-11612
▁cows	-11613
▁debí	-11614
▁fate	-11615
▁huyó	-11616
▁inse	-11617
▁kidn	-11618
▁luce	-11619
▁nací	-11620
▁nest	-11621
▁onto	-11622
▁pean	-11623
▁shoe	-11624
▁toki	-11625
▁trou	-11626
ferent	-11627
unning	-11628
utions	-11629
vember	-11630
ístico	-11631
▁Corea	-11632
▁buses	-11633
▁cafet	-11634
▁clara	-11635
▁enero	-11636
▁estim	-11637
▁goals	-11638
▁grano	-11639
▁húmed	-11640
▁incon	-11641
▁jabón	-11642
▁lasts	-11643
▁magic	-11644
▁mosqu	-11645
▁muero	-11646
▁nevar	-11647
▁pintó	-11648
▁ponen	-11649
▁posee	-11650
▁queja	-11651
▁scary	-11652
▁sting	-11653
▁tense	-11654
▁tonta	-11655
▁toque	-11656
▁tramp	-11657
▁trigo	-11658
▁twist	-11659
▁witch	-11660
Queréis	-11661
usiones	-11662
▁Millie	-11663
▁añadir	-11664
▁brains	-11665
▁breaks	-11666
▁celoso	-11667
▁claims	-11668
▁cómoda	-11669
▁dating	-11670
▁drawer	-11671
▁errors	-11672
▁estorn	-11673
▁harina	-11674
▁ignore	-11675
▁incomp	-11676
▁ladder	-11677
▁manage	-11678
▁mordió	-11679
▁máximo	-11680
▁niebla	-11681
▁outfit	-11682
▁pasaba	-11683
▁pepper	-11684
▁prince	-11685
▁robber	-11686
▁sótano	-11687
▁tomate	-11688
▁Hagamos	-11689
▁apetece	-11690
▁apresur	-11691
▁ardilla	-11692
▁checked	-11693
▁comidas	-11694
▁estruct	-11695
▁experto	-11696
▁harvest	-11697
▁mentido	-11698
▁moderno	-11699
▁pasillo	-11700
▁pañuelo	-11701
▁pedirte	-11702
▁ringing	-11703
▁scolded	-11704
▁wounded	-11705
▁November	-11706
▁Thursday	-11707
▁acuerdas	-11708
▁amanecer	-11709
▁ambiente	-11710
▁botellas	-11711
▁camiseta	-11712
▁completa	-11713
▁conocida	-11714
▁escondió	-11715
▁exciting	-11716
▁incómodo	-11717
▁intended	-11718
▁olvidaré	-11719
▁pimienta	-11720
▁positive	-11721
▁presentó	-11722
▁primeros	-11723
▁príncipe	-11724
▁realizar	-11725
▁secuestr	-11726
▁teniendo	-11727
▁teníamos	-11728
▁upstairs	-11729
▁astronaut	-11730
▁committee	-11731
▁customers	-11732
▁explosión	-11733
▁perdiendo	-11734
▁preparing	-11735
▁resources	-11736
▁scientist	-11737
▁strangers	-11738
▁traductor	-11739
▁transform	-11740
▁afortunado	-11741
▁cigarettes	-11742
▁compromiso	-11743
▁disappoint	-11744
▁helicopter	-11745
▁incredible	-11746
▁journalist	-11747
▁matemática	-11748
▁producción	-11749
▁descubierto	-11750
▁preocuparse	-11751
▁acostumbrada	-11752
▁personalidad	-11753
▁Ú	-11754
ahu	-11755
ipp	-11756
met	-11757
ocr	-11758
uki	-11759
ína	-11760
íne	-11761
óst	-11762
▁Av	-11763
▁dw	-11764
bian	-11765
cope	-11766
ring	-11767
taba	-11768
▁Cog	-11769
▁DNA	-11770
▁Ele	-11771
▁Eve	-11772
▁Mir	-11773
▁cél	-11774
▁hir	-11775
▁ult	-11776
Hasta	-11777
ectos	-11778
ental	-11779
shirt	-11780
ísima	-11781
▁King	-11782
▁crea	-11783
▁gain	-11784
▁guer	-11785
▁iPad	-11786
▁juez	-11787
▁líqu	-11788
▁mate	-11789
▁mayo	-11790
▁salí	-11791
▁silb	-11792
▁sopl	-11793
Quiero	-11794
ciales	-11795
horias	-11796
leased	-11797
urance	-11798
ándolo	-11799
áramos	-11800
▁Adoro	-11801
▁Birds	-11802
▁Descu	-11803
▁Korea	-11804
▁March	-11805
▁Marte	-11806
▁Permí	-11807
▁acond	-11808
▁agres	-11809
▁amado	-11810
▁antib	-11811
▁cinta	-11812
▁exhib	-11813
▁falsa	-11814
▁inten	-11815
▁jaula	-11816
▁lucha	-11817
▁malet	-11818
▁mueve	-11819
▁oveja	-11820
▁plaza	-11821
▁prior	-11822
▁tower	-11823
▁wanna	-11824
iéndose	-11825
uamente	-11826
▁Buenas	-11827
▁Prepar	-11828
▁Pueden	-11829
▁Tráeme	-11830
▁Wednes	-11831
▁admira	-11832
▁associ	-11833
▁carajo	-11834
▁chairs	-11835
▁damage	-11836
▁dancer	-11837
▁detail	-11838
▁fortal	-11839
▁fruits	-11840
▁gustar	-11841
▁hatred	-11842
▁miente	-11843
▁misión	-11844
▁monkey	-11845
▁mueren	-11846
▁narrow	-11847
▁oxygen	-11848
▁patrio	-11849
▁sobras	-11850
▁tomato	-11851
▁transp	-11852
▁vidrio	-11853
▁volume	-11854
▁worker	-11855
▁Dijeron	-11856
▁Michael	-11857
▁anxious	-11858
▁apasion	-11859
▁ayudado	-11860
▁billion	-11861
▁directo	-11862
▁dirigió	-11863
▁egoísta	-11864
▁enojada	-11865
▁estudió	-11866
▁exagger	-11867
▁ilusión	-11868
▁planned	-11869
▁quedara	-11870
▁shining	-11871
▁sincero	-11872
▁sonreír	-11873
▁soporto	-11874
▁versión	-11875
▁viniste	-11876
Necesitas	-11877
Recuerdas	-11878
▁antiguas	-11879
▁breaking	-11880
▁caluroso	-11881
▁careless	-11882
▁comments	-11883
▁composed	-11884
▁cuaderno	-11885
▁cultural	-11886
▁defender	-11887
▁disfruta	-11888
▁falleció	-11889
▁families	-11890
▁humanity	-11891
▁infantil	-11892
▁inferior	-11893
▁ladrones	-11894
▁llegaste	-11895
▁messages	-11896
▁parecido	-11897
▁recursos	-11898
▁suffered	-11899
▁acknowled	-11900
▁atractiva	-11901
▁automóvil	-11902
▁confident	-11903
▁considera	-11904
▁entienden	-11905
▁escondido	-11906
▁presentes	-11907
▁tradicion	-11908
▁Cualquiera	-11909
▁conference	-11910
▁desarrollo	-11911
▁expression	-11912
▁foreigners	-11913
▁hambriento	-11914
▁reasonable	-11915
▁zanahorias	-11916
▁canadienses	-11917
▁professional	-11918
▁consecuencias	-11919
clo	-11920
ops	-11921
rag	-11922
win	-11923
▁Lá	-11924
▁ic	-11925
▁wo	-11926
Dios	-11927
Hace	-11928
brio	-11929
cién	-11930
days	-11931
emia	-11932
fera	-11933
icía	-11934
ieza	-11935
irás	-11936
oker	-11937
onym	-11938
orde	-11939
riel	-11940
uled	-11941
▁Del	-11942
▁Fal	-11943
▁Fel	-11944
▁Tóm	-11945
▁aun	-11946
▁boc	-11947
▁bús	-11948
▁cag	-11949
▁caz	-11950
▁cob	-11951
▁gym	-11952
▁lug	-11953
▁pés	-11954
▁sar	-11955
▁sep	-11956
▁wid	-11957
Habla	-11958
Podés	-11959
apped	-11960
asant	-11961
cidos	-11962
rones	-11963
▁City	-11964
▁Cong	-11965
▁Dejó	-11966
▁Fred	-11967
▁Leon	-11968
▁Nara	-11969
▁adap	-11970
▁adqu	-11971
▁baff	-11972
▁bola	-11973
▁deer	-11974
▁delf	-11975
▁gods	-11976
▁miér	-11977
▁mole	-11978
▁pine	-11979
▁verb	-11980
▁vert	-11981
atoria	-11982
carach	-11983
endida	-11984
uestra	-11985
▁Great	-11986
▁Haría	-11987
▁Hawai	-11988
▁Plane	-11989
▁Right	-11990
▁adora	-11991
▁basic	-11992
▁crack	-11993
▁foods	-11994
▁giant	-11995
▁llamé	-11996
▁mezqu	-11997
▁miner	-11998
▁minim	-11999
▁neutr	-12000
▁proof	-12001
▁salga	-12002
▁sixty	-12003
▁soñar	-12004
▁tinta	-12005
▁Follow	-12006
▁acumul	-12007
▁apesta	-12008
▁cerdos	-12009
▁comité	-12010
▁demons	-12011
▁devast	-12012
▁diablo	-12013
▁dijera	-12014
▁enfadó	-12015
▁escapó	-12016
▁gastos	-12017
▁global	-12018
▁immigr	-12019
▁income	-12020
▁inters	-12021
▁madrug	-12022
▁marrón	-12023
▁nearby	-12024
▁nerves	-12025
▁oscura	-12026
▁points	-12027
▁propag	-12028
▁puedan	-12029
▁sillas	-12030
▁sufrir	-12031
▁tengan	-12032
▁vendió	-12033
▁visitó	-12034
▁éramos	-12035
▁Everest	-12036
▁Policía	-12037
▁bananas	-12038
▁carrots	-12039
▁casarme	-12040
▁constit	-12041
▁engaged	-12042
▁envidia	-12043
▁guardia	-12044
▁intenta	-12045
▁killing	-12046
▁llevado	-12047
▁llevaré	-12048
▁lloverá	-12049
▁milagro	-12050
▁mostrar	-12051
▁médicos	-12052
▁predict	-12053
▁reducir	-12054
▁relativ	-12055
▁rodeado	-12056
▁surgery	-12057
▁testigo	-12058
▁thanked	-12059
▁utiliza	-12060
▁viniera	-12061
▁vivimos	-12062
▁atropell	-12063
▁ayudaría	-12064
▁carrying	-12065
▁conducta	-12066
▁cucarach	-12067
▁defectos	-12068
▁discover	-12069
▁dreaming	-12070
▁economic	-12071
▁entradas	-12072
▁espacial	-12073
▁espíritu	-12074
▁guarante	-12075
▁memories	-12076
▁opinions	-12077
▁scissors	-12078
▁sentados	-12079
▁sentarse	-12080
▁Esperemos	-12081
▁indispens	-12082
▁miércoles	-12083
▁prefieres	-12084
▁tendremos	-12085
▁cigarrillo	-12086
▁influencia	-12087
▁musulmanes	-12088
▁mutuamente	-12089
▁communicate	-12090
▁encontrarás	-12091
▁experienced	-12092
▁habilidades	-12093
▁movimientos	-12094
▁ordenadores	-12095
▁difficulties	-12096
▁grandparents	-12097
▁interesantes	-12098
Su	-12099
ey	-12100
hy	-12101
Per	-12102
ded	-12103
iot	-12104
unn	-12105
íqu	-12106
▁Ak	-12107
▁ov	-12108
Vend	-12109
asta	-12110
eles	-12111
five	-12112
inet	-12113
omic	-12114
onga	-12115
rian	-12116
▁Art	-12117
▁Bor	-12118
▁Imp	-12119
▁reb	-12120
agers	-12121
guard	-12122
inero	-12123
uegos	-12124
▁Anne	-12125
▁Hand	-12126
▁Hope	-12127
▁Limp	-12128
▁Mart	-12129
▁Nice	-12130
▁Sabe	-12131
▁Save	-12132
▁bron	-12133
▁cups	-12134
▁envy	-12135
▁iban	-12136
▁jira	-12137
▁orph	-12138
▁pura	-12139
▁seco	-12140
▁site	-12141
▁tiny	-12142
▁vais	-12143
acidad	-12144
ortion	-12145
ármelo	-12146
▁Algún	-12147
▁Claus	-12148
▁Fumar	-12149
▁Nobel	-12150
▁almac	-12151
▁asign	-12152
▁canto	-12153
▁clave	-12154
▁earns	-12155
▁faces	-12156
▁films	-12157
▁fully	-12158
▁gasta	-12159
▁homic	-12160
▁jubil	-12161
▁lacks	-12162
▁lingü	-12163
▁loose	-12164
▁mandó	-12165
▁melod	-12166
▁occup	-12167
▁pilot	-12168
▁promo	-12169
▁quemó	-12170
▁rueda	-12171
▁sembr	-12172
▁serve	-12173
▁shook	-12174
▁spoon	-12175
▁sujet	-12176
▁talla	-12177
▁tarda	-12178
▁temer	-12179
▁tomes	-12180
▁withd	-12181
▁ácido	-12182
Tenemos	-12183
ripción	-12184
▁Fueron	-12185
▁Kabyle	-12186
▁Nature	-12187
▁Piensa	-12188
▁además	-12189
▁adonde	-12190
▁cadena	-12191
▁compan	-12192
▁césped	-12193
▁enseño	-12194
▁espere	-12195
▁formal	-12196
▁frozen	-12197
▁gimnas	-12198
▁hugged	-12199
▁indign	-12200
▁irresp	-12201
▁medios	-12202
▁phrase	-12203
▁podían	-12204
▁receta	-12205
▁shadow	-12206
▁struct	-12207
▁videoj	-12208
▁Believe	-12209
▁Detesto	-12210
▁Pokémon	-12211
▁Querría	-12212
▁aggress	-12213
▁barking	-12214
▁charged	-12215
▁despise	-12216
▁discrim	-12217
▁estrope	-12218
▁existir	-12219
▁febrero	-12220
▁grammar	-12221
▁greeted	-12222
▁hanging	-12223
▁however	-12224
▁incluye	-12225
▁llegada	-12226
▁longest	-12227
▁luggage	-12228
▁límites	-12229
▁nativos	-12230
▁noventa	-12231
▁pianist	-12232
▁pointed	-12233
▁puntual	-12234
▁related	-12235
▁rodilla	-12236
▁seconds	-12237
▁sienten	-12238
▁surface	-12239
▁tourist	-12240
▁unusual	-12241
▁Hablamos	-12242
▁Whenever	-12243
▁cheating	-12244
▁circunst	-12245
▁deserted	-12246
▁despedir	-12247
▁detenido	-12248
▁diseases	-12249
▁enjoying	-12250
▁hermosos	-12251
▁llamaste	-12252
▁mensajes	-12253
▁physical	-12254
▁pianista	-12255
▁salieron	-12256
▁security	-12257
▁superfic	-12258
▁turistas	-12259
▁Wednesday	-12260
▁agradecer	-12261
▁agradezco	-12262
▁connected	-12263
▁explosion	-12264
▁financial	-12265
▁forbidden	-12266
▁foreigner	-12267
▁incidente	-12268
▁inocencia	-12269
▁invisible	-12270
▁leftovers	-12271
▁mosquitos	-12272
▁operation	-12273
▁peligrosa	-12274
▁populares	-12275
▁resembles	-12276
▁therefore	-12277
▁tranquila	-12278
▁confundido	-12279
▁consideran	-12280
▁encuentras	-12281
▁impaciente	-12282
▁principios	-12283
▁relaciones	-12284
▁sobrevivir	-12285
▁desaparecido	-12286
▁habitaciones	-12287
▁definitivamente	-12288
UU	-12289
yr	-12290
ém	-12291
új	-12292
Hoy	-12293
dro	-12294
gla	-12295
lly	-12296
zzy	-12297
Todo	-12298
eper	-12299
gles	-12300
igan	-12301
keys	-12302
leta	-12303
lsen	-12304
yard	-12305
áver	-12306
ígan	-12307
▁Exp	-12308
▁Fre	-12309
▁Hit	-12310
▁Tob	-12311
▁Yam	-12312
▁ais	-12313
▁fen	-12314
▁fug	-12315
▁jul	-12316
▁syn	-12317
▁Ésa	-12318
ashed	-12319
astro	-12320
eness	-12321
iloto	-12322
iores	-12323
phere	-12324
store	-12325
árate	-12326
▁Allí	-12327
▁Deme	-12328
▁Hong	-12329
▁July	-12330
▁Vete	-12331
▁Wake	-12332
▁apet	-12333
▁bare	-12334
▁bish	-12335
▁cage	-12336
▁chup	-12337
▁damn	-12338
▁dies	-12339
▁elog	-12340
▁ibas	-12341
▁ilum	-12342
▁lech	-12343
▁mice	-12344
▁neum	-12345
▁rein	-12346
▁seca	-12347
▁stro	-12348
▁tumb	-12349
▁veas	-12350
ietnam	-12351
istics	-12352
landés	-12353
quinas	-12354
▁Ambas	-12355
▁Bruno	-12356
▁Corrí	-12357
▁Queda	-12358
▁Sentí	-12359
▁Suelo	-12360
▁ambas	-12361
▁argel	-12362
▁caras	-12363
▁cedió	-12364
▁cueva	-12365
▁fairy	-12366
▁forms	-12367
▁goose	-12368
▁impar	-12369
▁impat	-12370
▁meals	-12371
▁metas	-12372
▁mosca	-12373
▁nails	-12374
▁natal	-12375
▁ofrec	-12376
▁opera	-12377
▁pasto	-12378
▁pizar	-12379
▁purse	-12380
▁sides	-12381
▁tomas	-12382
▁vigor	-12383
Quieren	-12384
▁Perdió	-12385
▁Recuer	-12386
▁Tendré	-12387
▁barata	-12388
▁despid	-12389
▁dibujo	-12390
▁exager	-12391
▁firmar	-12392
▁formar	-12393
▁hebreo	-12394
▁insens	-12395
▁legend	-12396
▁malent	-12397
▁objeto	-12398
▁obtuvo	-12399
▁parked	-12400
▁partió	-12401
▁precip	-12402
▁puerto	-12403
▁reduce	-12404
▁remove	-12405
▁riendo	-12406
▁series	-12407
▁spider	-12408
▁struck	-12409
▁sucede	-12410
▁título	-12411
▁victim	-12412
▁íbamos	-12413
▁Carlsen	-12414
▁blanket	-12415
▁bonitos	-12416
▁cadáver	-12417
▁compens	-12418
▁cuántas	-12419
▁círculo	-12420
▁dibujar	-12421
▁dominar	-12422
▁grandma	-12423
▁llamaba	-12424
▁nublado	-12425
▁ponerte	-12426
▁poverty	-12427
▁showing	-12428
▁soltero	-12429
▁suceder	-12430
▁tercera	-12431
▁víctima	-12432
▁wasting	-12433
▁Esperaba	-12434
▁advanced	-12435
▁canceled	-12436
▁citizens	-12437
▁desagrad	-12438
▁encender	-12439
▁habíamos	-12440
▁hesitate	-12441
▁imagined	-12442
▁ingresos	-12443
▁obligado	-12444
▁oponente	-12445
▁planetas	-12446
▁collected	-12447
▁comprando	-12448
▁conocimos	-12449
▁deliciosa	-12450
▁enseñarme	-12451
▁essential	-12452
▁ignorance	-12453
▁siguiendo	-12454
▁wondering	-12455
▁conscience	-12456
▁pronunciar	-12457
▁reputación	-12458
▁secretaria	-12459
▁fotografías	-12460
▁personality	-12461
▁generalmente	-12462
▁herramientas	-12463
▁circumstances	-12464
Ad	-12465
Eh	-12466
li	-12467
ng	-12468
Aún	-12469
Fue	-12470
Who	-12471
aks	-12472
isc	-12473
usk	-12474
▁XX	-12475
▁ub	-12476
▁át	-12477
acto	-12478
azos	-12479
ears	-12480
iety	-12481
izan	-12482
izas	-12483
reme	-12484
sequ	-12485
▁Div	-12486
▁Had	-12487
▁Jug	-12488
▁Pay	-12489
▁Sec	-12490
▁acu	-12491
▁aho	-12492
▁fea	-12493
▁ink	-12494
▁jod	-12495
▁nod	-12496
▁unf	-12497
Desde	-12498
Ellos	-12499
cidas	-12500
estim	-12501
onoce	-12502
vista	-12503
▁Coge	-12504
▁Ense	-12505
▁Walk	-12506
▁acto	-12507
▁añad	-12508
▁chir	-12509
▁copa	-12510
▁duel	-12511
▁elig	-12512
▁estu	-12513
▁fork	-12514
▁malv	-12515
▁nost	-12516
▁pavo	-12517
▁pido	-12518
▁posp	-12519
▁suma	-12520
▁west	-12521
ativos	-12522
ciocho	-12523
inaria	-12524
tering	-12525
éramos	-12526
▁Habrá	-12527
▁Hacía	-12528
▁YouTu	-12529
▁bless	-12530
▁colgó	-12531
▁cuida	-12532
▁domin	-12533
▁exams	-12534
▁felic	-12535
▁hayan	-12536
▁julio	-12537
▁lleve	-12538
▁monum	-12539
▁mustn	-12540
▁pares	-12541
▁prime	-12542
▁sauce	-12543
▁shake	-12544
▁trash	-12545
▁tries	-12546
Quiénes	-12547
▁August	-12548
▁Hawaii	-12549
▁adults	-12550
▁begged	-12551
▁bomber	-12552
▁career	-12553
▁cariño	-12554
▁crecer	-12555
▁dismin	-12556
▁déjame	-12557
▁engañó	-12558
▁ensayo	-12559
▁formed	-12560
▁habits	-12561
▁hunger	-12562
▁incons	-12563
▁instal	-12564
▁inunda	-12565
▁kitten	-12566
▁luchar	-12567
▁micros	-12568
▁mobile	-12569
▁prover	-12570
▁retire	-12571
▁siguen	-12572
▁soborn	-12573
▁útiles	-12574
▁Aquella	-12575
▁Swedish	-12576
▁Vietnam	-12577
▁accumul	-12578
▁amenaza	-12579
▁ceremon	-12580
▁conejos	-12581
▁demanda	-12582
▁educado	-12583
▁efectos	-12584
▁gemelos	-12585
▁greater	-12586
▁horizon	-12587
▁moverse	-12588
▁parties	-12589
▁pasaron	-12590
▁planets	-12591
▁retired	-12592
▁soñando	-12593
▁tijeras	-12594
▁tristes	-12595
▁unemplo	-12596
icaciones	-12597
▁Speaking	-12598
▁aguantar	-12599
▁alquilar	-12600
▁creative	-12601
▁darkness	-12602
▁embajada	-12603
▁encendió	-12604
▁gathered	-12605
▁habitual	-12606
▁instante	-12607
▁martillo	-12608
▁minister	-12609
▁máquinas	-12610
▁portátil	-12611
▁response	-12612
▁revistas	-12613
▁sanguíne	-12614
▁valuable	-12615
▁vuestros	-12616
▁amarillas	-12617
▁artículos	-12618
▁buildings	-12619
▁comprarlo	-12620
▁correctly	-12621
▁desperate	-12622
▁esperamos	-12623
▁insurance	-12624
▁thousands	-12625
▁abandonada	-12626
▁department	-12627
▁homosexual	-12628
▁increasing	-12629
▁preocupada	-12630
▁revolution	-12631
▁scientific	-12632
▁superficie	-12633
▁vegetarian	-12634
▁Fortunately	-12635
▁encantadora	-12636
▁helicóptero	-12637
▁indifferent	-12638
▁construction	-12639
▁acondicionado	-12640
▁communication	-12641
▁Afortunadamente	-12642
ché	-12643
eah	-12644
gin	-12645
ifo	-12646
joy	-12647
put	-12648
uma	-12649
áns	-12650
▁Du	-12651
▁ál	-12652
Deja	-12653
alty	-12654
esis	-12655
jano	-12656
uman	-12657
▁Air	-12658
▁Cab	-12659
▁Ton	-12660
▁Won	-12661
▁apa	-12662
▁fid	-12663
▁imb	-12664
▁rib	-12665
▁usó	-12666
▁Ése	-12667
Ojalá	-12668
andés	-12669
apole	-12670
doors	-12671
ieves	-12672
iland	-12673
jados	-12674
orado	-12675
umped	-12676
áforo	-12677
ódigo	-12678
▁Flor	-12679
▁Haga	-12680
▁Llév	-12681
▁Long	-12682
▁aula	-12683
▁bang	-12684
▁curs	-12685
▁lavó	-12686
▁merc	-12687
▁mías	-12688
▁pipe	-12689
▁sept	-12690
▁vago	-12691
graphy	-12692
iendes	-12693
itamos	-12694
ánsito	-12695
▁Busco	-12696
▁Claro	-12697
▁Hacer	-12698
▁Paulo	-12699
▁Stand	-12700
▁Trump	-12701
▁Vengo	-12702
▁acced	-12703
▁acqua	-12704
▁arras	-12705
▁atacó	-12706
▁besar	-12707
▁bitch	-12708
▁broad	-12709
▁bunch	-12710
▁burnt	-12711
▁calvo	-12712
▁caros	-12713
▁crema	-12714
▁encon	-12715
▁essay	-12716
▁furry	-12717
▁goods	-12718
▁harás	-12719
▁imped	-12720
▁manip	-12721
▁marks	-12722
▁pegar	-12723
▁resid	-12724
▁resol	-12725
▁ritmo	-12726
▁rough	-12727
▁sumin	-12728
▁swims	-12729
▁tinto	-12730
Bienven	-12731
cciones	-12732
▁Además	-12733
▁Hablas	-12734
▁Napole	-12735
▁abrupt	-12736
▁aceler	-12737
▁adicto	-12738
▁branch	-12739
▁cabaña	-12740
▁cicatr	-12741
▁cierre	-12742
▁cloudy	-12743
▁cockro	-12744
▁comenz	-12745
▁crecen	-12746
▁enojar	-12747
▁forces	-12748
▁futbol	-12749
▁huelga	-12750
▁humill	-12751
▁knight	-12752
▁makeup	-12753
▁médica	-12754
▁olvida	-12755
▁pasión	-12756
▁piloto	-12757
▁reales	-12758
▁recibí	-12759
▁riding	-12760
▁rising	-12761
▁settle	-12762
▁sujeto	-12763
▁templo	-12764
▁wooden	-12765
▁Finnish	-12766
▁Johnson	-12767
▁YouTube	-12768
▁celebra	-12769
▁confuse	-12770
▁counter	-12771
▁crowded	-12772
▁escalar	-12773
▁ficción	-12774
▁follows	-12775
▁gigante	-12776
▁gustará	-12777
▁hábitos	-12778
▁kissing	-12779
▁lessons	-12780
▁limited	-12781
▁llegara	-12782
▁measure	-12783
▁miracle	-12784
▁painful	-12785
▁podrían	-12786
▁quedaba	-12787
▁queráis	-12788
▁revenge	-12789
▁saliera	-12790
▁spilled	-12791
▁stepped	-12792
▁typical	-12793
▁Scotland	-12794
▁alemanes	-12795
▁antiguos	-12796
▁asientos	-12797
▁concurso	-12798
▁desearía	-12799
▁empleado	-12800
▁estanque	-12801
▁estudios	-12802
▁forgiven	-12803
▁murdered	-12804
▁occasion	-12805
▁perspect	-12806
▁pidieron	-12807
▁promedio	-12808
▁semáforo	-12809
▁textbook	-12810
▁transmit	-12811
▁tránsito	-12812
▁voluntar	-12813
▁arrestado	-12814
▁cafetería	-12815
▁comercial	-12816
▁conversar	-12817
▁dieciocho	-12818
▁divertida	-12819
▁edificios	-12820
▁estupendo	-12821
▁eternidad	-12822
▁evidencia	-12823
▁exception	-12824
▁impatient	-12825
▁mentioned	-12826
▁miserable	-12827
▁muchachos	-12828
▁pacientes	-12829
▁permitido	-12830
▁adelantado	-12831
▁bienvenida	-12832
▁bienvenido	-12833
▁collecting	-12834
▁demasiados	-12835
▁honestidad	-12836
▁sandwiches	-12837
▁conduciendo	-12838
▁emocionante	-12839
▁refrigerador	-12840
▁indispensable	-12841
▁constantemente	-12842
▁frecuentemente	-12843
gh	-12844
alf	-12845
bul	-12846
cre	-12847
cus	-12848
ows	-12849
ócr	-12850
▁AD	-12851
▁bú	-12852
aker	-12853
athy	-12854
atis	-12855
cend	-12856
ifle	-12857
irus	-12858
lean	-12859
onic	-12860
éntr	-12861
▁Ado	-12862
▁Hen	-12863
▁Joe	-12864
▁Mel	-12865
▁Nue	-12866
▁Obs	-12867
▁Sir	-12868
▁geo	-12869
▁hoc	-12870
▁tif	-12871
allas	-12872
andom	-12873
cione	-12874
copio	-12875
empla	-12876
erías	-12877
iaste	-12878
oster	-12879
owers	-12880
rando	-12881
érpre	-12882
ética	-12883
▁Acab	-12884
▁Draw	-12885
▁Kong	-12886
▁Park	-12887
▁Vuel	-12888
▁acid	-12889
▁acró	-12890
▁ages	-12891
▁cabe	-12892
▁culo	-12893
▁enth	-12894
▁fuel	-12895
▁gane	-12896
▁gest	-12897
▁hilo	-12898
▁inte	-12899
▁mudó	-12900
▁palo	-12901
▁plus	-12902
▁puts	-12903
▁quin	-12904
▁shel	-12905
▁ther	-12906
▁thor	-12907
▁velo	-12908
Sabías	-12909
handed	-12910
▁Julia	-12911
▁Justo	-12912
▁Luego	-12913
▁Union	-12914
▁aclar	-12915
▁acrob	-12916
▁album	-12917
▁araña	-12918
▁cakes	-12919
▁congr	-12920
▁damas	-12921
▁dizzy	-12922
▁farma	-12923
▁fewer	-12924
▁forec	-12925
▁gripe	-12926
▁herir	-12927
▁leads	-12928
▁manga	-12929
▁monos	-12930
▁negot	-12931
▁paral	-12932
▁pesos	-12933
▁pharm	-12934
▁recog	-12935
▁revés	-12936
▁rojos	-12937
▁subsc	-12938
▁teles	-12939
▁title	-12940
▁tuyos	-12941
▁yield	-12942
Estabas	-12943
agement	-12944
amentos	-12945
▁Basque	-12946
▁Lament	-12947
▁Laurie	-12948
▁Though	-12949
▁acabas	-12950
▁adulto	-12951
▁astuto	-12952
▁atrapó	-12953
▁circle	-12954
▁conced	-12955
▁desemp	-12956
▁empres	-12957
▁esclav	-12958
▁espant	-12959
▁fresca	-12960
▁gracia	-12961
▁grades	-12962
▁género	-12963
▁issues	-12964
▁manual	-12965
▁modest	-12966
▁moscas	-12967
▁musulm	-12968
▁poured	-12969
▁promot	-12970
▁puzzle	-12971
▁pálido	-12972
▁random	-12973
▁ruidos	-12974
▁salgas	-12975
▁seguía	-12976
▁snowed	-12977
▁tomará	-12978
▁underw	-12979
▁vecina	-12980
▁virtue	-12981
iciembre	-12982
▁Abandon	-12983
▁Ayúdame	-12984
▁Hicimos	-12985
▁Muslims	-12986
▁Quieren	-12987
▁alemana	-12988
▁approve	-12989
▁archivo	-12990
▁attract	-12991
▁aviones	-12992
▁concier	-12993
▁connect	-12994
▁desafío	-12995
▁despite	-12996
▁engañar	-12997
▁escuché	-12998
▁estalló	-12999
▁famosos	-13000
▁fiestas	-13001
▁grosero	-13002
▁hunting	-13003
▁presion	-13004
▁probado	-13005
▁quietly	-13006
▁quiénes	-13007
▁regreso	-13008
▁shouted	-13009
▁sugirió	-13010
▁sábados	-13011
▁whisper	-13012
▁December	-13013
▁advirtió	-13014
▁alquiler	-13015
▁cancelar	-13016
▁comprend	-13017
▁cortinas	-13018
▁cuestion	-13019
▁desastre	-13020
▁engañado	-13021
▁entreten	-13022
▁function	-13023
▁generous	-13024
▁gimnasio	-13025
▁gustaban	-13026
▁intérpre	-13027
▁lavadora	-13028
▁machines	-13029
▁murderer	-13030
▁precious	-13031
▁progreso	-13032
▁pudieron	-13033
▁rejected	-13034
▁separate	-13035
▁thorough	-13036
▁tortured	-13037
▁tourists	-13038
▁arrogante	-13039
▁encantado	-13040
▁escritura	-13041
▁invention	-13042
▁izquierdo	-13043
▁magazines	-13044
▁materials	-13045
▁noviembre	-13046
▁pesadilla	-13047
▁separated	-13048
▁sorprende	-13049
▁demasiadas	-13050
▁disgusting	-13051
▁entrevista	-13052
▁impression	-13053
▁peligrosos	-13054
▁competition	-13055
▁encontrarlo	-13056
▁pensamiento	-13057
▁consequences	-13058
▁personalmente	-13059
▁circunstancias	-13060
Fu	-13061
boy	-13062
dea	-13063
eré	-13064
gic	-13065
gro	-13066
icy	-13067
nia	-13068
oge	-13069
otó	-13070
róg	-13071
tór	-13072
vor	-13073
▁ko	-13074
dijo	-13075
gase	-13076
hama	-13077
ikes	-13078
inan	-13079
lash	-13080
onda	-13081
peta	-13082
ugas	-13083
ában	-13084
▁Cut	-13085
▁Die	-13086
▁Pón	-13087
▁Tha	-13088
▁Var	-13089
▁ira	-13090
▁ket	-13091
▁sam	-13092
▁tej	-13093
▁tid	-13094
Compr	-13095
ctora	-13096
iciar	-13097
ilton	-13098
inian	-13099
intió	-13100
jamas	-13101
▁Abra	-13102
▁Bach	-13103
▁Budd	-13104
▁Four	-13105
▁Hang	-13106
▁Jiro	-13107
▁Like	-13108
▁Lord	-13109
▁Luck	-13110
▁Pase	-13111
▁Wood	-13112
▁athe	-13113
▁dirá	-13114
▁diss	-13115
▁fled	-13116
▁frog	-13117
▁fumo	-13118
▁jugó	-13119
▁pawn	-13120
▁pues	-13121
▁reno	-13122
▁seek	-13123
▁sham	-13124
▁trig	-13125
▁térm	-13126
Sabéis	-13127
ground	-13128
ipedia	-13129
itaria	-13130
izando	-13131
queros	-13132
rógeno	-13133
óstico	-13134
ública	-13135
▁Apaga	-13136
▁Chris	-13137
▁Enjoy	-13138
▁Venus	-13139
▁assem	-13140
▁atmos	-13141
▁ayudé	-13142
▁bruja	-13143
▁cable	-13144
▁canal	-13145
▁caída	-13146
▁comed	-13147
▁consp	-13148
▁coron	-13149
▁crece	-13150
▁crown	-13151
▁cuero	-13152
▁dozen	-13153
▁fried	-13154
▁grues	-13155
▁horno	-13156
▁inher	-13157
▁lanzó	-13158
▁modos	-13159
▁nombr	-13160
▁panda	-13161
▁prett	-13162
▁ratas	-13163
▁recap	-13164
▁serie	-13165
▁sordo	-13166
▁spare	-13167
▁stove	-13168
▁stret	-13169
▁tools	-13170
▁viera	-13171
▁vuela	-13172
instein	-13173
writing	-13174
▁Estáis	-13175
▁Promet	-13176
▁Singap	-13177
▁Suecia	-13178
▁allows	-13179
▁cargar	-13180
▁corona	-13181
▁código	-13182
▁desear	-13183
▁devolv	-13184
▁divide	-13185
▁estant	-13186
▁landed	-13187
▁laughs	-13188
▁leerlo	-13189
▁nacido	-13190
▁nights	-13191
▁pedazo	-13192
▁placed	-13193
▁potato	-13194
▁precis	-13195
▁purple	-13196
▁rented	-13197
▁resort	-13198
▁shirts	-13199
▁stared	-13200
▁tardes	-13201
▁target	-13202
▁temple	-13203
▁viejas	-13204
kerchief	-13205
▁Charles	-13206
▁ahorros	-13207
▁apetito	-13208
▁aprobar	-13209
▁arrival	-13210
▁cientos	-13211
▁cigarro	-13212
▁comunic	-13213
▁confess	-13214
▁coreano	-13215
▁cottage	-13216
▁crashed	-13217
▁desocup	-13218
▁disminu	-13219
▁escribo	-13220
▁grammat	-13221
▁hagamos	-13222
▁helpful	-13223
▁hurried	-13224
▁listens	-13225
▁masturb	-13226
▁mejilla	-13227
▁painter	-13228
▁papeles	-13229
▁parezca	-13230
▁parking	-13231
▁pienses	-13232
▁repetir	-13233
▁spiders	-13234
▁tradujo	-13235
▁unicorn	-13236
▁version	-13237
▁Consider	-13238
▁Cuéntame	-13239
▁Yokohama	-13240
▁abiertas	-13241
▁affected	-13242
▁agricult	-13243
▁approved	-13244
▁bailando	-13245
▁contamin	-13246
▁eighteen	-13247
▁encontra	-13248
▁entirely	-13249
▁estacion	-13250
▁hormigas	-13251
▁ingleses	-13252
▁manifest	-13253
▁mostraré	-13254
▁preciosa	-13255
▁released	-13256
▁respetar	-13257
▁screamed	-13258
▁sencilla	-13259
▁venganza	-13260
▁Muéstrame	-13261
▁ambulance	-13262
▁attracted	-13263
▁celebrate	-13264
▁cellphone	-13265
▁colectivo	-13266
▁comenzado	-13267
▁comprarle	-13268
▁congratul	-13269
▁documents	-13270
▁obviously	-13271
▁ocultando	-13272
▁ciudadanos	-13273
▁conclusión	-13274
▁explicarlo	-13275
▁despertador	-13276
▁handwriting	-13277
▁preguntarte	-13278
▁handkerchief	-13279
▁impresionado	-13280
),	-13281
Ap	-13282
Ll	-13283
Ve	-13284
omy	-13285
érf	-13286
▁Id	-13287
aped	-13288
aved	-13289
cast	-13290
ecas	-13291
ided	-13292
idio	-13293
iers	-13294
mony	-13295
quen	-13296
vido	-13297
▁Ans	-13298
▁Den	-13299
▁Edu	-13300
▁Ign	-13301
▁Kaz	-13302
▁Nat	-13303
▁Ram	-13304
▁Rio	-13305
▁Sac	-13306
▁Tem	-13307
▁fij	-13308
▁gam	-13309
▁net	-13310
▁unt	-13311
Sabés	-13312
andal	-13313
caron	-13314
contr	-13315
ienda	-13316
irías	-13317
jetas	-13318
▁Miss	-13319
▁Over	-13320
▁Sand	-13321
▁Sure	-13322
▁acar	-13323
▁bore	-13324
▁caut	-13325
▁cham	-13326
▁code	-13327
▁cuya	-13328
▁maes	-13329
▁orch	-13330
▁oven	-13331
▁pige	-13332
▁puro	-13333
▁rana	-13334
▁rect	-13335
▁seda	-13336
▁sigo	-13337
▁silk	-13338
▁spin	-13339
▁supe	-13340
▁tear	-13341
▁tost	-13342
Habéis	-13343
americ	-13344
cierto	-13345
cuador	-13346
ension	-13347
illing	-13348
itious	-13349
phones	-13350
tember	-13351
terías	-13352
ágenes	-13353
ámoslo	-13354
ándole	-13355
▁Acept	-13356
▁Elige	-13357
▁Extra	-13358
▁Filip	-13359
▁Segun	-13360
▁Sleep	-13361
▁Under	-13362
▁altas	-13363
▁ancho	-13364
▁baked	-13365
▁ballo	-13366
▁búsqu	-13367
▁claim	-13368
▁dejan	-13369
▁deuda	-13370
▁grifo	-13371
▁grows	-13372
▁holds	-13373
▁joyas	-13374
▁llora	-13375
▁mango	-13376
▁minds	-13377
▁nephe	-13378
▁ocupa	-13379
▁pasas	-13380
▁poker	-13381
▁psych	-13382
▁restr	-13383
▁sabés	-13384
▁sacud	-13385
▁salsa	-13386
▁scale	-13387
▁seeds	-13388
▁senté	-13389
▁tazas	-13390
▁tirar	-13391
▁types	-13392
▁venía	-13393
▁verás	-13394
▁waves	-13395
▁whale	-13396
▁éstos	-13397
oración	-13398
working	-13399
▁Conocí	-13400
▁Mercur	-13401
▁Modern	-13402
▁amante	-13403
▁applic	-13404
▁belief	-13405
▁beside	-13406
▁blonde	-13407
▁border	-13408
▁campos	-13409
▁carpet	-13410
▁charla	-13411
▁comete	-13412
▁divirt	-13413
▁dreamt	-13414
▁expuls	-13415
▁fairly	-13416
▁faltan	-13417
▁formul	-13418
▁grupos	-13419
▁guarda	-13420
▁invers	-13421
▁joined	-13422
▁ligero	-13423
▁loudly	-13424
▁mojado	-13425
▁ninety	-13426
▁odiaba	-13427
▁option	-13428
▁pintor	-13429
▁plates	-13430
▁policy	-13431
▁proces	-13432
▁recent	-13433
▁subido	-13434
▁sueles	-13435
▁veneno	-13436
▁wished	-13437
appiness	-13438
▁Perdona	-13439
▁Trabaja	-13440
▁aprendí	-13441
▁ayudaré	-13442
▁closest	-13443
▁context	-13444
▁cristal	-13445
▁cuchara	-13446
▁dejaría	-13447
▁diablos	-13448
▁dresses	-13449
▁escrita	-13450
▁fáciles	-13451
▁idiotas	-13452
▁lastimó	-13453
▁leather	-13454
▁monster	-13455
▁objects	-13456
▁picante	-13457
▁prefers	-13458
▁prosper	-13459
▁quedará	-13460
▁savings	-13461
▁tenedor	-13462
▁vencido	-13463
▁Language	-13464
▁Llegamos	-13465
▁Recuerda	-13466
▁ceremony	-13467
▁champion	-13468
▁concepto	-13469
▁defeated	-13470
▁demonios	-13471
▁demonstr	-13472
▁disaster	-13473
▁employee	-13474
▁entering	-13475
▁forecast	-13476
▁ignorant	-13477
▁informed	-13478
▁insisted	-13479
▁llamadas	-13480
▁llevarme	-13481
▁ministro	-13482
▁molestes	-13483
▁pudieras	-13484
▁restless	-13485
▁resuelto	-13486
▁sacrific	-13487
▁salvajes	-13488
▁spending	-13489
▁uniforme	-13490
▁September	-13491
▁Wikipedia	-13492
▁administr	-13493
▁adventure	-13494
▁attempted	-13495
▁authority	-13496
▁comprarme	-13497
▁considero	-13498
▁decírselo	-13499
▁deprimido	-13500
▁dieciséis	-13501
▁diversión	-13502
▁estúpidas	-13503
▁franceses	-13504
▁hablantes	-13505
▁incorrect	-13506
▁operación	-13507
▁preparada	-13508
▁ambulancia	-13509
▁complaints	-13510
▁conseguido	-13511
▁construido	-13512
▁downstairs	-13513
▁frightened	-13514
▁protección	-13515
▁seriamente	-13516
▁throughout	-13517
▁competencia	-13518
▁encontrarte	-13519
▁involucrado	-13520
▁necessarily	-13521
▁traditional	-13522
Tr	-13523
ué	-13524
dal	-13525
etr	-13526
tró	-13527
uos	-13528
val	-13529
íen	-13530
▁CO	-13531
emic	-13532
fall	-13533
gast	-13534
irán	-13535
itty	-13536
like	-13537
mite	-13538
onal	-13539
rero	-13540
undo	-13541
▁Boy	-13542
▁Gar	-13543
▁Nad	-13544
▁Swe	-13545
▁Zel	-13546
▁bee	-13547
▁bug	-13548
▁hyp	-13549
▁pee	-13550
▁puñ	-13551
▁shr	-13552
▁unb	-13553
▁ése	-13554
cemos	-13555
entar	-13556
esome	-13557
gular	-13558
ingua	-13559
orden	-13560
paste	-13561
ribly	-13562
uliar	-13563
ícula	-13564
ólico	-13565
▁Disc	-13566
▁Jess	-13567
▁Luis	-13568
▁Sign	-13569
▁Taiw	-13570
▁bees	-13571
▁cens	-13572
▁dame	-13573
▁mete	-13574
▁mide	-13575
▁nail	-13576
▁proh	-13577
▁rail	-13578
▁rush	-13579
▁sets	-13580
▁stab	-13581
▁swam	-13582
▁syll	-13583
▁trim	-13584
▁twin	-13585
▁zero	-13586
blings	-13587
umbres	-13588
ántate	-13589
▁Agrad	-13590
▁Anton	-13591
▁Break	-13592
▁Comet	-13593
▁Condu	-13594
▁Contr	-13595
▁Light	-13596
▁Marco	-13597
▁ajust	-13598
▁austr	-13599
▁casta	-13600
▁ciega	-13601
▁comía	-13602
▁cómpl	-13603
▁diera	-13604
▁durar	-13605
▁fabul	-13606
▁firme	-13607
▁focus	-13608
▁gallo	-13609
▁hazlo	-13610
▁intim	-13611
▁islam	-13612
▁llenó	-13613
▁lobos	-13614
▁presc	-13615
▁sacer	-13616
▁sheet	-13617
▁shine	-13618
▁slave	-13619
▁stock	-13620
▁vital	-13621
▁windy	-13622
▁yogur	-13623
iciente	-13624
▁Alicia	-13625
▁Déjalo	-13626
▁Dígame	-13627
▁Either	-13628
▁Street	-13629
▁acorde	-13630
▁agente	-13631
▁bullet	-13632
▁circul	-13633
▁cultiv	-13634
▁cálido	-13635
▁deudas	-13636
▁eighty	-13637
▁ejecut	-13638
▁evento	-13639
▁golden	-13640
▁jugaba	-13641
▁jungle	-13642
▁leaned	-13643
▁libras	-13644
▁margar	-13645
▁multip	-13646
▁obsequ	-13647
▁opinas	-13648
▁orphan	-13649
▁planea	-13650
▁reflex	-13651
▁rotten	-13652
▁statue	-13653
▁sunset	-13654
▁tocaba	-13655
▁vecind	-13656
▁visité	-13657
▁waiter	-13658
▁weighs	-13659
▁wounds	-13660
▁únicos	-13661
▁Instead	-13662
▁Janeiro	-13663
▁Tendrás	-13664
▁aparcar	-13665
▁aparece	-13666
▁baffled	-13667
▁baggage	-13668
▁campana	-13669
▁cuestan	-13670
▁defensa	-13671
▁derrota	-13672
▁destroy	-13673
▁estatua	-13674
▁founded	-13675
▁haircut	-13676
▁horario	-13677
▁imaginé	-13678
▁inclinó	-13679
▁maletas	-13680
▁manners	-13681
▁observa	-13682
▁officer	-13683
▁passing	-13684
▁pencils	-13685
▁plátano	-13686
▁pública	-13687
▁reflect	-13688
▁respeta	-13689
▁schools	-13690
▁sientas	-13691
▁unknown	-13692
▁vueltas	-13693
▁wealthy	-13694
▁worries	-13695
▁Nuestras	-13696
▁Vosotras	-13697
▁ayudando	-13698
▁ballenas	-13699
▁bomberos	-13700
▁búsqueda	-13701
▁cocinera	-13702
▁comieron	-13703
▁disagree	-13704
▁entendió	-13705
▁espaldas	-13706
▁estudias	-13707
▁farmacia	-13708
▁frontera	-13709
▁gritando	-13710
▁hundreds	-13711
▁imágenes	-13712
▁mariposa	-13713
▁monstruo	-13714
▁negative	-13715
▁overcome	-13716
▁partidos	-13717
▁peculiar	-13718
▁plátanos	-13719
▁policías	-13720
▁precioso	-13721
▁property	-13722
▁provided	-13723
▁responde	-13724
▁searched	-13725
▁vendedor	-13726
▁worrying	-13727
▁Deberíais	-13728
▁autoridad	-13729
▁butterfly	-13730
▁comprendo	-13731
▁currently	-13732
▁discovery	-13733
▁intereses	-13734
▁lightning	-13735
▁necesites	-13736
▁objetivos	-13737
▁propiedad	-13738
▁recuerdas	-13739
▁reuniones	-13740
▁searching	-13741
▁servicios	-13742
▁vegetales	-13743
▁afterwards	-13744
▁contradict	-13745
▁controvers	-13746
▁convenient	-13747
▁decidieron	-13748
▁emocionado	-13749
▁interesada	-13750
▁intérprete	-13751
▁observando	-13752
▁orgullosos	-13753
▁personally	-13754
▁suggestion	-13755
▁usualmente	-13756
▁cigarrillos	-13757
▁concentrate	-13758
▁crecimiento	-13759
▁increíblemente	-13760
▁necesariamente	-13761
Ar	-13762
BI	-13763
yn	-13764
Esa	-13765
grá	-13766
her	-13767
omi	-13768
rol	-13769
▁Ci	-13770
▁ye	-13771
atra	-13772
ayer	-13773
dolo	-13774
elet	-13775
elly	-13776
izos	-13777
lymp	-13778
oded	-13779
ojos	-13780
orce	-13781
osto	-13782
pack	-13783
phob	-13784
tles	-13785
uoso	-13786
what	-13787
▁Ath	-13788
▁Ham	-13789
▁Hot	-13790
▁Ret	-13791
▁Sev	-13792
▁Whe	-13793
▁Win	-13794
▁alb	-13795
▁aso	-13796
▁odd	-13797
▁rut	-13798
▁sag	-13799
Feliz	-13800
eters	-13801
inals	-13802
jadas	-13803
phoon	-13804
rados	-13805
tesis	-13806
ticos	-13807
tress	-13808
xible	-13809
ólogo	-13810
▁Aten	-13811
▁Food	-13812
▁Kids	-13813
▁Pick	-13814
▁Shin	-13815
▁acts	-13816
▁anun	-13817
▁apur	-13818
▁bala	-13819
▁cert	-13820
▁chew	-13821
▁diar	-13822
▁fits	-13823
▁gang	-13824
▁gata	-13825
▁mend	-13826
▁nube	-13827
▁perp	-13828
▁pesc	-13829
▁pica	-13830
▁pide	-13831
▁pila	-13832
▁rama	-13833
▁reac	-13834
▁root	-13835
▁tela	-13836
▁unhe	-13837
Fuiste	-13838
adería	-13839
avirus	-13840
igured	-13841
osaurs	-13842
ourage	-13843
quería	-13844
vision	-13845
▁Green	-13846
▁Hawái	-13847
▁Human	-13848
▁Nuevo	-13849
▁Scott	-13850
▁Teach	-13851
▁Unión	-13852
▁Viene	-13853
▁Young	-13854
▁burgl	-13855
▁coach	-13856
▁desen	-13857
▁dimit	-13858
▁entré	-13859
▁finds	-13860
▁inven	-13861
▁jewel	-13862
▁marzo	-13863
▁nieto	-13864
▁opens	-13865
▁pasos	-13866
▁repla	-13867
▁ruins	-13868
▁salen	-13869
▁split	-13870
▁surge	-13871
▁toast	-13872
▁velas	-13873
ísticas	-13874
▁Forget	-13875
▁Jewish	-13876
▁Llovió	-13877
▁Poland	-13878
▁Sweden	-13879
▁absorb	-13880
▁abstra	-13881
▁agosto	-13882
▁astero	-13883
▁bishop	-13884
▁caminó	-13885
▁cement	-13886
▁creado	-13887
▁cuales	-13888
▁despre	-13889
▁diente	-13890
▁fields	-13891
▁figura	-13892
▁groups	-13893
▁jugado	-13894
▁liquid	-13895
▁presum	-13896
▁recomp	-13897
▁respir	-13898
▁reward	-13899
▁ruinas	-13900
▁sewing	-13901
▁smooth	-13902
▁surviv	-13903
▁visual	-13904
ceptable	-13905
onscious	-13906
▁aparato	-13907
▁avoided	-13908
▁comprob	-13909
▁confesó	-13910
▁corrupt	-13911
▁cumplió	-13912
▁damaged	-13913
▁dejaste	-13914
▁delgado	-13915
▁descend	-13916
▁elderly	-13917
▁insulto	-13918
▁lamento	-13919
▁lápices	-13920
▁líquido	-13921
▁municip	-13922
▁persegu	-13923
▁rescued	-13924
▁revisar	-13925
▁shocked	-13926
▁suponía	-13927
▁thunder	-13928
▁tomates	-13929
▁trataba	-13930
▁typhoon	-13931
▁Gobierno	-13932
▁Mathemat	-13933
▁Nowadays	-13934
▁abstract	-13935
▁anteojos	-13936
▁appetite	-13937
▁basement	-13938
▁divorcio	-13939
▁drowning	-13940
▁ejemplos	-13941
▁especies	-13942
▁exterior	-13943
▁kilogram	-13944
▁necesite	-13945
▁occident	-13946
▁quejarse	-13947
▁revealed	-13948
▁señorita	-13949
▁subiendo	-13950
▁volvería	-13951
▁weekends	-13952
ltimamente	-13953
▁bookstore	-13954
▁cambiando	-13955
▁chemistry	-13956
▁comprarse	-13957
▁described	-13958
▁diciembre	-13959
▁diferenci	-13960
▁disguised	-13961
▁enseñando	-13962
▁innocence	-13963
▁interests	-13964
▁irregular	-13965
▁mostrarte	-13966
▁surrender	-13967
▁apparently	-13968
▁aumentando	-13969
▁conclusion	-13970
▁distracted	-13971
▁entrenador	-13972
▁esclavitud	-13973
▁prisionero	-13974
▁sobrevivió	-13975
▁surprising	-13976
▁threatened	-13977
▁Actualmente	-13978
▁development	-13979
▁discutiendo	-13980
▁principales	-13981
▁suficientes	-13982
▁trescientos	-13983
▁strawberries	-13984
▁cuidadosamente	-13985
▁descubrimiento	-13986
%.	-13987
uy	-13988
óv	-13989
But	-13990
fet	-13991
hof	-13992
osh	-13993
zon	-13994
ímp	-13995
▁Ok	-13996
▁¡¿	-13997
Perd	-13998
agle	-13999
cano	-14000
cipl	-14001
gano	-14002
gulo	-14003
gáis	-14004
ingo	-14005
jban	-14006
lets	-14007
logo	-14008
opin	-14009
plic	-14010
reno	-14011
veme	-14012
wood	-14013
▁Coc	-14014
▁Kim	-14015
▁Pra	-14016
▁Tak	-14017
▁bis	-14018
▁coj	-14019
▁gir	-14020
▁hip	-14021
▁peg	-14022
▁ram	-14023
chado	-14024
decir	-14025
etera	-14026
feros	-14027
garse	-14028
veral	-14029
▁Deje	-14030
▁Duer	-14031
▁Free	-14032
▁Real	-14033
▁abus	-14034
▁acud	-14035
▁ants	-14036
▁asco	-14037
▁asum	-14038
▁bags	-14039
▁chav	-14040
▁chef	-14041
▁craw	-14042
▁creí	-14043
▁fier	-14044
▁item	-14045
▁junt	-14046
▁lata	-14047
▁loan	-14048
▁lujo	-14049
▁maíz	-14050
▁murm	-14051
▁oigo	-14052
▁pedo	-14053
▁perc	-14054
▁raza	-14055
▁recl	-14056
▁roca	-14057
▁ruid	-14058
▁sana	-14059
▁sard	-14060
▁suck	-14061
▁toro	-14062
idores	-14063
lingua	-14064
uskera	-14065
ónicos	-14066
óviles	-14067
▁Brian	-14068
▁Helen	-14069
▁Llama	-14070
▁Noche	-14071
▁Obama	-14072
▁Olymp	-14073
▁Zamen	-14074
▁agudo	-14075
▁bebés	-14076
▁cells	-14077
▁charl	-14078
▁conté	-14079
▁cruzó	-14080
▁dolph	-14081
▁extin	-14082
▁fifth	-14083
▁firef	-14084
▁homes	-14085
▁huérf	-14086
▁judío	-14087
▁loses	-14088
▁mecán	-14089
▁oírlo	-14090
▁pairs	-14091
▁plain	-14092
▁puebl	-14093
▁tends	-14094
▁tiger	-14095
▁toman	-14096
▁trade	-14097
▁valla	-14098
▁álbum	-14099
onsider	-14100
▁Chopin	-14101
▁Discut	-14102
▁Humans	-14103
▁Little	-14104
▁Valent	-14105
▁Veamos	-14106
▁Yamada	-14107
▁abrazo	-14108
▁alcanz	-14109
▁bacter	-14110
▁cogido	-14111
▁conclu	-14112
▁dedicó	-14113
▁dollar	-14114
▁dragon	-14115
▁eligió	-14116
▁enjoys	-14117
▁estamp	-14118
▁farmer	-14119
▁headed	-14120
▁hockey	-14121
▁humili	-14122
▁hundió	-14123
▁ignoró	-14124
▁inmigr	-14125
▁inspir	-14126
▁metido	-14127
▁ovejas	-14128
▁patria	-14129
▁quinto	-14130
▁recipe	-14131
▁reform	-14132
▁rehusó	-14133
▁rescat	-14134
▁sellos	-14135
▁servir	-14136
▁sonríe	-14137
▁surely	-14138
▁tortur	-14139
▁típico	-14140
▁washes	-14141
▁Consegu	-14142
▁Descubr	-14143
▁Escucha	-14144
▁Llevaba	-14145
▁Whether	-14146
▁agregar	-14147
▁annoyed	-14148
▁applied	-14149
▁chances	-14150
▁charlar	-14151
▁compare	-14152
▁conduct	-14153
▁costará	-14154
▁customs	-14155
▁células	-14156
▁dejarlo	-14157
▁drunken	-14158
▁emborra	-14159
▁enfadar	-14160
▁fiction	-14161
▁gastado	-14162
▁matches	-14163
▁menores	-14164
▁pizarra	-14165
▁pockets	-14166
▁ponerlo	-14167
▁puestos	-14168
▁quarrel	-14169
▁rapidly	-14170
▁reempla	-14171
▁shortly	-14172
▁slipped	-14173
▁violent	-14174
▁vuelven	-14175
▁Einstein	-14176
▁Hablemos	-14177
▁Zamenhof	-14178
▁abundant	-14179
▁adecuada	-14180
▁aventura	-14181
▁caminaba	-14182
▁captured	-14183
▁constant	-14184
▁continuó	-14185
▁distinta	-14186
▁doctores	-14187
▁empiezan	-14188
▁enfrente	-14189
▁evidente	-14190
▁incompet	-14191
▁nerviosa	-14192
▁nowadays	-14193
▁ordinary	-14194
▁repeated	-14195
▁semillas	-14196
▁specific	-14197
▁suitable	-14198
▁tomatoes	-14199
▁vehículo	-14200
▁alimentar	-14201
▁atractivo	-14202
▁auténtico	-14203
▁brasileño	-14204
▁ceremonia	-14205
▁coleccion	-14206
▁compraron	-14207
▁developed	-14208
▁excepción	-14209
▁fijamente	-14210
▁increased	-14211
▁mariposas	-14212
▁persuaded	-14213
▁preferida	-14214
▁stupidity	-14215
▁tonterías	-14216
▁treatment	-14217
▁aggressive	-14218
▁costumbres	-14219
▁estructura	-14220
▁frequently	-14221
▁generation	-14222
▁incorrecto	-14223
▁punishment	-14224
▁septiembre	-14225
▁actividades	-14226
▁capacidades	-14227
▁combustible	-14228
▁desconocido	-14229
▁Últimamente	-14230
▁adolescentes	-14231
▁embarrassing	-14232
▁impresionante	-14233
ñó	-14234
Gan	-14235
bes	-14236
cod	-14237
enn	-14238
uja	-14239
▁Añ	-14240
▁Oc	-14241
Mary	-14242
acas	-14243
alas	-14244
anja	-14245
bios	-14246
cere	-14247
cest	-14248
enti	-14249
esar	-14250
eses	-14251
etre	-14252
gate	-14253
icta	-14254
kind	-14255
mare	-14256
rete	-14257
uded	-14258
▁ADN	-14259
▁Día	-14260
▁Moz	-14261
▁Run	-14262
▁Usa	-14263
▁aid	-14264
▁buf	-14265
▁déj	-14266
▁laz	-14267
▁lip	-14268
▁lux	-14269
▁sew	-14270
▁spy	-14271
▁tib	-14272
fonos	-14273
gment	-14274
iscos	-14275
itain	-14276
mares	-14277
oring	-14278
stick	-14279
uales	-14280
yment	-14281
▁Adiv	-14282
▁Asum	-14283
▁Bang	-14284
▁Belg	-14285
▁Forg	-14286
▁Mere	-14287
▁Pasó	-14288
▁apuñ	-14289
▁atóm	-14290
▁bise	-14291
▁ench	-14292
▁fulf	-14293
▁genu	-14294
▁gota	-14295
▁hats	-14296
▁lavo	-14297
▁lawn	-14298
▁mort	-14299
▁mues	-14300
▁orqu	-14301
▁piña	-14302
▁saxo	-14303
▁tape	-14304
▁tasa	-14305
▁triv	-14306
▁vamp	-14307
▁vist	-14308
▁zomb	-14309
Déjame	-14310
Porque	-14311
iantes	-14312
iation	-14313
teries	-14314
▁Asumo	-14315
▁Desay	-14316
▁Guess	-14317
▁Henry	-14318
▁Jorge	-14319
▁Queen	-14320
▁Roger	-14321
▁Salió	-14322
▁Yours	-14323
▁abide	-14324
▁accur	-14325
▁alien	-14326
▁apare	-14327
▁astro	-14328
▁block	-14329
▁bloom	-14330
▁cazar	-14331
▁click	-14332
▁daños	-14333
▁desor	-14334
▁desta	-14335
▁escog	-14336
▁espec	-14337
▁hydro	-14338
▁invad	-14339
▁marco	-14340
▁misle	-14341
▁orbit	-14342
▁paisa	-14343
▁pausa	-14344
▁pides	-14345
▁ramas	-14346
▁rebel	-14347
▁repug	-14348
▁rompe	-14349
▁seria	-14350
▁shave	-14351
▁shown	-14352
▁sudor	-14353
▁suits	-14354
▁tifón	-14355
▁tigre	-14356
▁topic	-14357
Because	-14358
Siempre	-14359
leyball	-14360
▁Always	-14361
▁Answer	-14362
▁Darwin	-14363
▁advers	-14364
▁advise	-14365
▁barber	-14366
▁bañera	-14367
▁cocodr	-14368
▁determ	-14369
▁dispos	-14370
▁duelen	-14371
▁equili	-14372
▁framed	-14373
▁herman	-14374
▁llenos	-14375
▁mechan	-14376
▁mezcla	-14377
▁misses	-14378
▁paliza	-14379
▁passes	-14380
▁piense	-14381
▁podías	-14382
▁porqué	-14383
▁proved	-14384
▁quizás	-14385
▁rescue	-14386
▁reírse	-14387
▁robots	-14388
▁ruedas	-14389
▁saludó	-14390
▁sitios	-14391
▁tasted	-14392
▁tiende	-14393
▁vuelvo	-14394
▁wasted	-14395
▁Antonio	-14396
▁Britain	-14397
▁Existen	-14398
▁Finally	-14399
▁Segunda	-14400
▁beating	-14401
▁bebidas	-14402
▁boiling	-14403
▁console	-14404
▁cuentos	-14405
▁destiny	-14406
▁detalle	-14407
▁dormida	-14408
▁duermen	-14409
▁effects	-14410
▁element	-14411
▁entregó	-14412
▁escolar	-14413
▁estante	-14414
▁figured	-14415
▁furioso	-14416
▁hurting	-14417
▁manipul	-14418
▁motivos	-14419
▁muñecas	-14420
▁máscara	-14421
▁navidad	-14422
▁parcial	-14423
▁picking	-14424
▁pierdas	-14425
▁privada	-14426
▁prometo	-14427
▁replied	-14428
▁section	-14429
▁setenta	-14430
▁término	-14431
▁whistle	-14432
▁Actually	-14433
▁Siéntate	-14434
▁Teníamos	-14435
▁acordeón	-14436
▁activity	-14437
▁addicted	-14438
▁atrasado	-14439
▁climbing	-14440
▁contexto	-14441
▁examples	-14442
▁expenses	-14443
▁llevaron	-14444
▁maquilla	-14445
▁normally	-14446
▁paranoid	-14447
▁perezoso	-14448
▁previous	-14449
▁primeras	-14450
▁produced	-14451
▁proposed	-14452
▁tarjetas	-14453
▁terribly	-14454
▁transpar	-14455
▁visitors	-14456
▁víctimas	-14457
▁abolished	-14458
▁accordion	-14459
▁ahorrando	-14460
▁audiencia	-14461
▁castigado	-14462
▁complacer	-14463
▁contratar	-14464
▁creciendo	-14465
▁españoles	-14466
▁estaremos	-14467
▁fracasado	-14468
▁horizonte	-14469
▁ingeniero	-14470
▁mejorando	-14471
▁optimista	-14472
▁practical	-14473
▁preguntes	-14474
▁relatives	-14475
▁Bienvenido	-14476
▁blackboard	-14477
▁celebrated	-14478
▁comenzaron	-14479
▁comúnmente	-14480
▁encouraged	-14481
▁estaciones	-14482
▁estantería	-14483
▁generación	-14484
▁peligrosas	-14485
▁preferiría	-14486
▁representa	-14487
▁revolución	-14488
▁suicidarse	-14489
▁vecindario	-14490
▁volleyball	-14491
▁atentamente	-14492
▁intenciones	-14493
▁preocupados	-14494
▁sufrimiento	-14495
▁computadoras	-14496
▁desagradable	-14497
▁independence	-14498
▁independencia	-14499
▁posibilidades	-14500
▁pronunciation	-14501
▁repentinamente	-14502
Ni	-14503
fu	-14504
Vos	-14505
ads	-14506
don	-14507
how	-14508
rot	-14509
try	-14510
vía	-14511
▁Mc	-14512
Vaya	-14513
adre	-14514
cile	-14515
dete	-14516
edge	-14517
elle	-14518
emen	-14519
ezed	-14520
fish	-14521
hold	-14522
icaz	-14523
iner	-14524
ords	-14525
unas	-14526
utes	-14527
écil	-14528
▁CDs	-14529
▁Gol	-14530
▁Mex	-14531
▁Muy	-14532
▁Olv	-14533
▁Ren	-14534
▁Sch	-14535
▁Suz	-14536
▁Too	-14537
▁ank	-14538
▁ath	-14539
▁bio	-14540
▁bum	-14541
▁dup	-14542
▁gaz	-14543
▁gob	-14544
▁kan	-14545
▁lam	-14546
▁obo	-14547
▁rio	-14548
▁riñ	-14549
▁sch	-14550
▁slo	-14551
▁sól	-14552
▁tob	-14553
▁vej	-14554
Estud	-14555
Saben	-14556
Thank	-14557
althy	-14558
aming	-14559
araje	-14560
arlos	-14561
artos	-14562
aving	-14563
chiat	-14564
estic	-14565
guila	-14566
sever	-14567
undry	-14568
vedad	-14569
zones	-14570
▁Bush	-14571
▁Fish	-14572
▁Holy	-14573
▁Jews	-14574
▁Salí	-14575
▁West	-14576
▁afil	-14577
▁cobr	-14578
▁echa	-14579
▁ende	-14580
▁enve	-14581
▁fame	-14582
▁leña	-14583
▁nido	-14584
▁owns	-14585
▁palm	-14586
▁pico	-14587
▁prud	-14588
▁rayo	-14589
▁sinf	-14590
▁subt	-14591
▁symp	-14592
▁vete	-14593
▁vice	-14594
anches	-14595
currió	-14596
ements	-14597
thirty	-14598
ósfera	-14599
▁Acaba	-14600
▁Asumí	-14601
▁Buddh	-14602
▁Chess	-14603
▁Deseo	-14604
▁Haven	-14605
▁Hiros	-14606
▁Raise	-14607
▁Titan	-14608
▁acusó	-14609
▁areas	-14610
▁armed	-14611
▁balls	-14612
▁beben	-14613
▁bride	-14614
▁chann	-14615
▁conex	-14616
▁desat	-14617
▁eagle	-14618
▁exter	-14619
▁femen	-14620
▁grade	-14621
▁knees	-14622
▁lingu	-14623
▁oreja	-14624
▁oírte	-14625
▁pelot	-14626
▁plazo	-14627
▁pones	-14628
▁quant	-14629
▁quizá	-14630
▁recon	-14631
▁refor	-14632
▁risks	-14633
▁roads	-14634
▁signs	-14635
▁stake	-14636
▁steps	-14637
▁sueco	-14638
▁sufre	-14639
▁tasty	-14640
▁trunk	-14641
▁tumba	-14642
▁utter	-14643
▁vapor	-14644
acífico	-14645
aración	-14646
ichever	-14647
ulación	-14648
▁Better	-14649
▁Devuél	-14650
▁Dinner	-14651
▁Donald	-14652
▁Estado	-14653
▁Romans	-14654
▁Saturn	-14655
▁activo	-14656
▁adquir	-14657
▁ancest	-14658
▁apuñal	-14659
▁ayudan	-14660
▁carbón	-14661
▁decidí	-14662
▁device	-14663
▁downlo	-14664
▁earned	-14665
▁empecé	-14666
▁excurs	-14667
▁fourth	-14668
▁frutos	-14669
▁growth	-14670
▁hearts	-14671
▁injust	-14672
▁intrig	-14673
▁knives	-14674
▁lavado	-14675
▁loving	-14676
▁maneja	-14677
▁manner	-14678
▁mascot	-14679
▁mosque	-14680
▁pastor	-14681
▁perpet	-14682
▁pounds	-14683
▁prestó	-14684
▁quieto	-14685
▁recibo	-14686
▁reprob	-14687
▁resbal	-14688
▁sabios	-14689
▁sentar	-14690
▁severe	-14691
▁tabaco	-14692
▁theirs	-14693
▁timbre	-14694
▁trates	-14695
▁visits	-14696
▁Armenia	-14697
▁Explain	-14698
▁Mediter	-14699
▁Polonia	-14700
▁Several	-14701
▁acrobat	-14702
▁apology	-14703
▁apuesto	-14704
▁arrives	-14705
▁ballena	-14706
▁cambian	-14707
▁casaron	-14708
▁cepillo	-14709
▁closely	-14710
▁compass	-14711
▁compuls	-14712
▁deprisa	-14713
▁euskera	-14714
▁fainted	-14715
▁finales	-14716
▁furious	-14717
▁greatly	-14718
▁jumping	-14719
▁laundry	-14720
▁lavando	-14721
▁leyenda	-14722
▁nations	-14723
▁prendió	-14724
▁prestas	-14725
▁shaking	-14726
▁soledad	-14727
▁termine	-14728
▁thieves	-14729
▁usuario	-14730
▁alimento	-14731
▁billetes	-14732
▁compraré	-14733
▁contarle	-14734
▁curtains	-14735
▁customer	-14736
▁enormous	-14737
▁escuelas	-14738
▁estornud	-14739
▁holandés	-14740
▁illusion	-14741
▁included	-14742
▁industry	-14743
▁interven	-14744
▁italiana	-14745
▁mezquita	-14746
▁offended	-14747
▁perdimos	-14748
▁permitió	-14749
▁psychiat	-14750
▁quebrado	-14751
▁quejando	-14752
▁relacion	-14753
▁respects	-14754
▁siblings	-14755
▁somewhat	-14756
▁supplies	-14757
▁transfer	-14758
▁youngest	-14759
▁Canadians	-14760
▁Generally	-14761
▁bolsillos	-14762
▁cristiano	-14763
▁demostrar	-14764
▁entusiasm	-14765
▁including	-14766
▁industria	-14767
▁madrugada	-14768
▁mamíferos	-14769
▁nightmare	-14770
▁organized	-14771
▁paintings	-14772
▁remembers	-14773
▁determined	-14774
▁entenderlo	-14775
▁incredibly	-14776
▁nightmares	-14777
▁preguntado	-14778
▁principles	-14779
▁protection	-14780
▁siguientes	-14781
▁toothpaste	-14782
▁accumulated	-14783
▁appropriate	-14784
▁established	-14785
▁murciélagos	-14786
▁sentimiento	-14787
▁tratamiento	-14788
▁computadores	-14789
▁medicamentos	-14790
▁oportunidades	-14791
▁principalmente	-14792
ti	-14793
áy	-14794
ñé	-14795
Así	-14796
jen	-14797
lie	-14798
lor	-14799
ríb	-14800
sle	-14801
thy	-14802
usi	-14803
yal	-14804
óso	-14805
▁Ka	-14806
▁Ox	-14807
▁ec	-14808
Aquí	-14809
Debo	-14810
ashi	-14811
bing	-14812
down	-14813
entó	-14814
foot	-14815
gers	-14816
gico	-14817
ieta	-14818
oras	-14819
reas	-14820
rich	-14821
roso	-14822
tete	-14823
unta	-14824
walk	-14825
▁Afr	-14826
▁Bro	-14827
▁Met	-14828
▁Out	-14829
▁Pag	-14830
▁São	-14831
▁Wil	-14832
▁atm	-14833
▁org	-14834
[...]
